{
  "version": "1.0",
  "truncation": null,
  "padding": null,
  "added_tokens": [
    {
      "id": 0,
      "content": "[PAD]",
      "single_word": false,
      "lstrip": false,
      "rstrip": false,
      "normalized": false,
      "special": true
    },
    {
      "id": 1,
      "content": "[UNK]",
      "single_word": false,
      "lstrip": false,
      "rstrip": false,
      "normalized": false,
      "special": true
    },
    {
      "id": 2,
      "content": "[SOS]",
      "single_word": false,
      "lstrip": false,
      "rstrip": false,
      "normalized": false,
      "special": true
    },
    {
      "id": 3,
      "content": "[EOS]",
      "single_word": false,
      "lstrip": false,
      "rstrip": false,
      "normalized": false,
      "special": true
    },
    {
      "id": 4,
      "content": "[MASK]",
      "single_word": false,
      "lstrip": false,
      "rstrip": false,
      "normalized": false,
      "special": true
    }
  ],
  "normalizer": null,
  "pre_tokenizer": {
    "type": "Whitespace"
  },
  "post_processor": null,
  "decoder": null,
  "model": {
    "type": "BPE",
    "dropout": null,
    "unk_token": "[UNK]",
    "continuing_subword_prefix": null,
    "end_of_word_suffix": null,
    "fuse_unk": false,
    "byte_fallback": false,
    "ignore_merges": false,
    "vocab": {
      "[PAD]": 0,
      "[UNK]": 1,
      "[SOS]": 2,
      "[EOS]": 3,
      "[MASK]": 4,
      "!": 5,
      "\"": 6,
      "#": 7,
      "$": 8,
      "%": 9,
      "&": 10,
      "'": 11,
      "(": 12,
      ")": 13,
      "*": 14,
      "+": 15,
      ",": 16,
      "-": 17,
      ".": 18,
      "/": 19,
      "0": 20,
      "1": 21,
      "2": 22,
      "3": 23,
      "4": 24,
      "5": 25,
      "6": 26,
      "7": 27,
      "8": 28,
      "9": 29,
      ":": 30,
      ";": 31,
      "<": 32,
      "=": 33,
      ">": 34,
      "?": 35,
      "@": 36,
      "A": 37,
      "B": 38,
      "C": 39,
      "D": 40,
      "E": 41,
      "F": 42,
      "G": 43,
      "H": 44,
      "I": 45,
      "J": 46,
      "K": 47,
      "L": 48,
      "M": 49,
      "N": 50,
      "O": 51,
      "P": 52,
      "Q": 53,
      "R": 54,
      "S": 55,
      "T": 56,
      "U": 57,
      "V": 58,
      "W": 59,
      "X": 60,
      "Y": 61,
      "Z": 62,
      "[": 63,
      "\\": 64,
      "]": 65,
      "^": 66,
      "_": 67,
      "`": 68,
      "a": 69,
      "b": 70,
      "c": 71,
      "d": 72,
      "e": 73,
      "f": 74,
      "g": 75,
      "h": 76,
      "i": 77,
      "j": 78,
      "k": 79,
      "l": 80,
      "m": 81,
      "n": 82,
      "o": 83,
      "p": 84,
      "q": 85,
      "r": 86,
      "s": 87,
      "t": 88,
      "u": 89,
      "v": 90,
      "w": 91,
      "x": 92,
      "y": 93,
      "z": 94,
      "{": 95,
      "|": 96,
      "}": 97,
      "~": 98,
      "£": 99,
      "¥": 100,
      "¬": 101,
      "°": 102,
      "±": 103,
      "²": 104,
      "³": 105,
      "µ": 106,
      "·": 107,
      "¾": 108,
      "¿": 109,
      "É": 110,
      "×": 111,
      "Ú": 112,
      "à": 113,
      "á": 114,
      "â": 115,
      "ã": 116,
      "ä": 117,
      "æ": 118,
      "ç": 119,
      "è": 120,
      "é": 121,
      "ê": 122,
      "ë": 123,
      "í": 124,
      "î": 125,
      "ñ": 126,
      "ó": 127,
      "ô": 128,
      "ö": 129,
      "÷": 130,
      "ø": 131,
      "ù": 132,
      "ú": 133,
      "û": 134,
      "ü": 135,
      "Č": 136,
      "ġ": 137,
      "ł": 138,
      "ő": 139,
      "ǎ": 140,
      "ǐ": 141,
      "Δ": 142,
      "Π": 143,
      "Σ": 144,
      "α": 145,
      "β": 146,
      "γ": 147,
      "δ": 148,
      "ε": 149,
      "η": 150,
      "θ": 151,
      "λ": 152,
      "μ": 153,
      "ξ": 154,
      "π": 155,
      "ρ": 156,
      "σ": 157,
      "τ": 158,
      "г": 159,
      "д": 160,
      "о": 161,
      "⁄": 162,
      "₀": 163,
      "₁": 164,
      "₂": 165,
      "ₙ": 166,
      "ℝ": 167,
      "™": 168,
      "ℤ": 169,
      "→": 170,
      "↦": 171,
      "∂": 172,
      "∅": 173,
      "∇": 174,
      "∈": 175,
      "∑": 176,
      "−": 177,
      "√": 178,
      "∛": 179,
      "∞": 180,
      "∩": 181,
      "∪": 182,
      "∫": 183,
      "∬": 184,
      "∮": 185,
      "≅": 186,
      "≈": 187,
      "≠": 188,
      "≤": 189,
      "≥": 190,
      "⊆": 191,
      "⊕": 192,
      "⋃": 193,
      "⋅": 194,
      "█": 195,
      "★": 196,
      "☆": 197,
      "♻": 198,
      "✨": 199,
      "❤": 200,
      "⭐": 201,
      "こ": 202,
      "ち": 203,
      "に": 204,
      "は": 205,
      "ん": 206,
      "上": 207,
      "你": 208,
      "吗": 209,
      "好": 210,
      "面": 211,
      "️": 212,
      "🌆": 213,
      "🌍": 214,
      "🌎": 215,
      "🌱": 216,
      "🌳": 217,
      "🌿": 218,
      "🍕": 219,
      "🏡": 220,
      "🐙": 221,
      "💔": 222,
      "💚": 223,
      "💨": 224,
      "💪": 225,
      "📰": 226,
      "🔥": 227,
      "🕷": 228,
      "🕸": 229,
      "😄": 230,
      "😉": 231,
      "😊": 232,
      "😎": 233,
      "😘": 234,
      "🙄": 235,
      "🚀": 236,
      "🚗": 237,
      "🛒": 238,
      "🥚": 239,
      "th": 240,
      "in": 241,
      "er": 242,
      "an": 243,
      "on": 244,
      "re": 245,
      "the": 246,
      "at": 247,
      "en": 248,
      "st": 249,
      "or": 250,
      "ou": 251,
      "al": 252,
      "es": 253,
      "ing": 254,
      "ar": 255,
      "it": 256,
      "of": 257,
      "le": 258,
      "and": 259,
      "to": 260,
      "is": 261,
      "ed": 262,
      "as": 263,
      "ion": 264,
      "ic": 265,
      "ro": 266,
      "ac": 267,
      "ent": 268,
      "se": 269,
      "he": 270,
      "de": 271,
      "me": 272,
      "il": 273,
      "ow": 274,
      "ch": 275,
      "ve": 276,
      "for": 277,
      "ct": 278,
      "co": 279,
      "et": 280,
      "ce": 281,
      "li": 282,
      "ur": 283,
      "ly": 284,
      "ut": 285,
      "ad": 286,
      "be": 287,
      "id": 288,
      "lo": 289,
      "con": 290,
      "mp": 291,
      "un": 292,
      "ith": 293,
      "ver": 294,
      "ir": 295,
      "gh": 296,
      "our": 297,
      "ag": 298,
      "us": 299,
      "ul": 300,
      "ri": 301,
      "ay": 302,
      "OS": 303,
      "ter": 304,
      "um": 305,
      "ne": 306,
      "ation": 307,
      "ab": 308,
      "we": 309,
      "ate": 310,
      "res": 311,
      "wh": 312,
      "with": 313,
      "ap": 314,
      "pro": 315,
      "that": 316,
      "ol": 317,
      "ot": 318,
      "ex": 319,
      "tr": 320,
      "are": 321,
      "per": 322,
      "am": 323,
      "ain": 324,
      "qu": 325,
      "00": 326,
      "if": 327,
      "The": 328,
      "pe": 329,
      "out": 330,
      "ere": 331,
      "all": 332,
      "oun": 333,
      "ld": 334,
      "ke": 335,
      "ght": 336,
      "pl": 337,
      "so": 338,
      "im": 339,
      "ity": 340,
      "te": 341,
      "mo": 342,
      "ess": 343,
      "sh": 344,
      "ist": 345,
      ");": 346,
      "ers": 347,
      "ind": 348,
      "art": 349,
      "wor": 350,
      "his": 351,
      "fe": 352,
      "age": 353,
      "you": 354,
      "su": 355,
      "by": 356,
      "rom": 357,
      "ment": 358,
      "int": 359,
      "SOS": 360,
      "bo": 361,
      "EOS": 362,
      "si": 363,
      "end": 364,
      "ue": 365,
      "act": 366,
      "from": 367,
      "one": 368,
      "ach": 369,
      "po": 370,
      "ant": 371,
      "em": 372,
      "ame": 373,
      "ber": 374,
      "can": 375,
      "In": 376,
      "ther": 377,
      "ill": 378,
      "ies": 379,
      "ave": 380,
      "ge": 381,
      "ile": 382,
      "iv": 383,
      "this": 384,
      "av": 385,
      "str": 386,
      "ort": 387,
      "ass": 388,
      "om": 389,
      "du": 390,
      "ence": 391,
      "ll": 392,
      "gr": 393,
      "pr": 394,
      "ast": 395,
      "cre": 396,
      "was": 397,
      "num": 398,
      "ound": 399,
      "cl": 400,
      "ance": 401,
      "my": 402,
      "its": 403,
      "ak": 404,
      "not": 405,
      "ould": 406,
      "op": 407,
      "ci": 408,
      "ti": 409,
      "your": 410,
      "ction": 411,
      "ine": 412,
      "ev": 413,
      "now": 414,
      "ure": 415,
      "com": 416,
      "their": 417,
      "der": 418,
      "ous": 419,
      "sp": 420,
      "ds": 421,
      "put": 422,
      "tur": 423,
      "form": 424,
      "her": 425,
      "ite": 426,
      "no": 427,
      "up": 428,
      "ust": 429,
      "do": 430,
      "ok": 431,
      "ud": 432,
      "ive": 433,
      "get": 434,
      "bl": 435,
      "ig": 436,
      "ack": 437,
      "any": 438,
      "tal": 439,
      "turn": 440,
      "pt": 441,
      "cur": 442,
      "ser": 443,
      "ck": 444,
      "ep": 445,
      "able": 446,
      "ace": 447,
      "fo": 448,
      "new": 449,
      "el": 450,
      "day": 451,
      "imp": 452,
      "()": 453,
      "has": 454,
      "est": 455,
      "comp": 456,
      "ory": 457,
      "led": 458,
      "but": 459,
      "ical": 460,
      "cont": 461,
      "``": 462,
      "vi": 463,
      "ans": 464,
      "ren": 465,
      "Th": 466,
      "have": 467,
      "ire": 468,
      "ma": 469,
      "produ": 470,
      "It": 471,
      "ice": 472,
      "son": 473,
      "aw": 474,
      "number": 475,
      "return": 476,
      "know": 477,
      "dis": 478,
      "iz": 479,
      "ear": 480,
      "dat": 481,
      "about": 482,
      "spe": 483,
      "(\"": 484,
      "Wh": 485,
      "ight": 486,
      "ount": 487,
      "ough": 488,
      "ever": 489,
      "br": 490,
      "cal": 491,
      "find": 492,
      "ase": 493,
      "they": 494,
      "time": 495,
      "ath": 496,
      "ions": 497,
      "ble": 498,
      "ial": 499,
      "each": 500,
      "od": 501,
      "ang": 502,
      "ext": 503,
      "into": 504,
      "let": 505,
      "ents": 506,
      "low": 507,
      "000": 508,
      "ult": 509,
      "ail": 510,
      "there": 511,
      "sel": 512,
      "log": 513,
      "ong": 514,
      "fer": 515,
      "like": 516,
      "An": 517,
      "ard": 518,
      "own": 519,
      "val": 520,
      "ich": 521,
      "au": 522,
      "total": 523,
      "name": 524,
      "app": 525,
      "pres": 526,
      "ary": 527,
      "how": 528,
      "input": 529,
      "ph": 530,
      "err": 531,
      "way": 532,
      "irst": 533,
      "ful": 534,
      "hour": 535,
      "main": 536,
      "So": 537,
      "thr": 538,
      "cul": 539,
      "pon": 540,
      "tw": 541,
      "10": 542,
      "St": 543,
      "ated": 544,
      "ations": 545,
      "who": 546,
      "will": 547,
      "ual": 548,
      "them": 549,
      "other": 550,
      "enc": 551,
      "This": 552,
      "af": 553,
      "red": 554,
      "self": 555,
      "We": 556,
      "ks": 557,
      "20": 558,
      "//": 559,
      "Re": 560,
      "He": 561,
      "row": 562,
      "light": 563,
      "eng": 564,
      "ie": 565,
      "fore": 566,
      "cri": 567,
      "fun": 568,
      "go": 569,
      "\",": 570,
      "To": 571,
      "ating": 572,
      "cess": 573,
      "more": 574,
      "through": 575,
      "world": 576,
      "read": 577,
      "const": 578,
      "inter": 579,
      "ho": 580,
      "des": 581,
      "ark": 582,
      ".\"": 583,
      "ip": 584,
      "pos": 585,
      "sy": 586,
      "data": 587,
      "add": 588,
      "min": 589,
      "arch": 590,
      "pre": 591,
      "ility": 592,
      "need": 593,
      "print": 594,
      "play": 595,
      "os": 596,
      "char": 597,
      "ition": 598,
      "IN": 599,
      "mon": 600,
      "ty": 601,
      "cr": 602,
      "under": 603,
      "she": 604,
      "which": 605,
      "file": 606,
      "ors": 607,
      "cent": 608,
      "ree": 609,
      "would": 610,
      "50": 611,
      "count": 612,
      "old": 613,
      "arr": 614,
      "ings": 615,
      "part": 616,
      "ens": 617,
      "pass": 618,
      "over": 619,
      "ake": 620,
      "import": 621,
      ").": 622,
      "class": 623,
      "bet": 624,
      "book": 625,
      "stud": 626,
      "using": 627,
      "ick": 628,
      "quest": 629,
      "par": 630,
      "ople": 631,
      "respon": 632,
      "rent": 633,
      "dr": 634,
      "set": 635,
      "cor": 636,
      "some": 637,
      "You": 638,
      "inal": 639,
      "life": 640,
      "where": 641,
      "these": 642,
      "people": 643,
      "what": 644,
      "air": 645,
      "many": 646,
      "stand": 647,
      "every": 648,
      "No": 649,
      "iles": 650,
      "idence": 651,
      "fl": 652,
      "::": 653,
      "tri": 654,
      "cho": 655,
      "man": 656,
      "ting": 657,
      "ys": 658,
      "had": 659,
      "```": 660,
      "dist": 661,
      "ters": 662,
      "hum": 663,
      "col": 664,
      "product": 665,
      "car": 666,
      "Con": 667,
      "ish": 668,
      "cript": 669,
      "ball": 670,
      "ob": 671,
      "ves": 672,
      "ze": 673,
      "work": 674,
      "ide": 675,
      "ink": 676,
      "first": 677,
      "two": 678,
      "use": 679,
      "<<": 680,
      "emp": 681,
      "when": 682,
      "just": 683,
      "hours": 684,
      "gre": 685,
      "ious": 686,
      "ates": 687,
      "ten": 688,
      "conne": 689,
      "ener": 690,
      "wer": 691,
      "ef": 692,
      "calcul": 693,
      "ween": 694,
      "ning": 695,
      "\")": 696,
      "result": 697,
      "..": 698,
      "std": 699,
      "ability": 700,
      "between": 701,
      "user": 702,
      "As": 703,
      "also": 704,
      "les": 705,
      "ific": 706,
      "How": 707,
      "back": 708,
      "):": 709,
      "def": 710,
      "ater": 711,
      "Now": 712,
      "And": 713,
      "stem": 714,
      "arg": 715,
      "than": 716,
      "year": 717,
      "ces": 718,
      "cap": 719,
      "ose": 720,
      "Ex": 721,
      "cept": 722,
      "('": 723,
      "ather": 724,
      "function": 725,
      "12": 726,
      "bas": 727,
      "ye": 728,
      "mple": 729,
      "list": 730,
      "lect": 731,
      "war": 732,
      "pu": 733,
      "bu": 734,
      "comm": 735,
      "ments": 736,
      "while": 737,
      "En": 738,
      "should": 739,
      "him": 740,
      "port": 741,
      "current": 742,
      "step": 743,
      "ls": 744,
      "word": 745,
      "ways": 746,
      "sol": 747,
      "incl": 748,
      "tain": 749,
      "If": 750,
      "search": 751,
      "What": 752,
      "thing": 753,
      "io": 754,
      "akes": 755,
      "bre": 756,
      "stru": 757,
      "person": 758,
      "ures": 759,
      "mem": 760,
      "==": 761,
      "real": 762,
      "cost": 763,
      "rite": 764,
      "vo": 765,
      "xt": 766,
      "dy": 767,
      "gn": 768,
      "--": 769,
      "string": 770,
      "();": 771,
      "pri": 772,
      "Ch": 773,
      "ild": 774,
      "vers": 775,
      "But": 776,
      "path": 777,
      "evidence": 778,
      "dif": 779,
      "were": 780,
      "both": 781,
      "hand": 782,
      "then": 783,
      "mer": 784,
      "60": 785,
      "fr": 786,
      "key": 787,
      "ange": 788,
      "requ": 789,
      "less": 790,
      "15": 791,
      "ect": 792,
      "ts": 793,
      "ature": 794,
      "ew": 795,
      "ht": 796,
      "could": 797,
      "sm": 798,
      "appl": 799,
      "blic": 800,
      "right": 801,
      "aking": 802,
      "Pl": 803,
      "equ": 804,
      "There": 805,
      "uring": 806,
      "Str": 807,
      "line": 808,
      "Pro": 809,
      "fil": 810,
      "',": 811,
      "fol": 812,
      "ream": 813,
      "ey": 814,
      "even": 815,
      "ness": 816,
      "var": 817,
      "vent": 818,
      "ery": 819,
      "ise": 820,
      "ics": 821,
      "ities": 822,
      "text": 823,
      "fact": 824,
      "ft": 825,
      "take": 826,
      "sub": 827,
      "ling": 828,
      "iqu": 829,
      "atch": 830,
      "giv": 831,
      "such": 832,
      "igh": 833,
      "che": 834,
      "ss": 835,
      "),": 836,
      "public": 837,
      "head": 838,
      "cons": 839,
      "sur": 840,
      "most": 841,
      "peri": 842,
      "ages": 843,
      "start": 844,
      "mar": 845,
      "hel": 846,
      "miles": 847,
      "hist": 848,
      "vide": 849,
      "100": 850,
      "ict": 851,
      "ving": 852,
      "ign": 853,
      "OR": 854,
      "30": 855,
      "ude": 856,
      "value": 857,
      "press": 858,
      "down": 859,
      "ject": 860,
      "stat": 861,
      "String": 862,
      "riend": 863,
      "cover": 864,
      "sk": 865,
      "next": 866,
      "ia": 867,
      "Al": 868,
      "ars": 869,
      "been": 870,
      "jo": 871,
      "ven": 872,
      "ved": 873,
      "ele": 874,
      "fect": 875,
      "formation": 876,
      "AT": 877,
      "see": 878,
      "ily": 879,
      "gu": 880,
      "otal": 881,
      "heart": 882,
      "ner": 883,
      "For": 884,
      "only": 885,
      "gram": 886,
      "Node": 887,
      "ince": 888,
      "logy": 889,
      "train": 890,
      "Total": 891,
      "rr": 892,
      "inde": 893,
      "cient": 894,
      "found": 895,
      "friend": 896,
      "json": 897,
      "ought": 898,
      "cli": 899,
      "calculate": 900,
      "rit": 901,
      "gl": 902,
      "words": 903,
      "inst": 904,
      "trave": 905,
      "oper": 906,
      "ues": 907,
      "contain": 908,
      "answer": 909,
      "long": 910,
      "prob": 911,
      "cial": 912,
      "come": 913,
      "differ": 914,
      "40": 915,
      "vis": 916,
      "room": 917,
      "ava": 918,
      "They": 919,
      "charac": 920,
      "around": 921,
      "students": 922,
      "try": 923,
      "ason": 924,
      "follow": 925,
      "ses": 926,
      "mag": 927,
      "Dr": 928,
      "create": 929,
      "ution": 930,
      "tp": 931,
      "ian": 932,
      "aver": 933,
      "ential": 934,
      "__": 935,
      "wid": 936,
      "tract": 937,
      "loye": 938,
      "cin": 939,
      "lop": 940,
      "ced": 941,
      "understand": 942,
      "ication": 943,
      "often": 944,
      "node": 945,
      "yth": 946,
      "tech": 947,
      "information": 948,
      "ms": 949,
      "ular": 950,
      "place": 951,
      "Cre": 952,
      "known": 953,
      "ative": 954,
      "days": 955,
      "inte": 956,
      "left": 957,
      "She": 958,
      "sa": 959,
      "25": 960,
      ":=": 961,
      "plan": 962,
      "suc": 963,
      "lit": 964,
      "ize": 965,
      "appro": 966,
      "fam": 967,
      "item": 968,
      "after": 969,
      "lear": 970,
      "help": 971,
      "Sy": 972,
      "sing": 973,
      "pect": 974,
      "side": 975,
      "city": 976,
      "Plan": 977,
      "http": 978,
      "19": 979,
      "ower": 980,
      "ER": 981,
      "sign": 982,
      "within": 983,
      "velop": 984,
      "body": 985,
      "aph": 986,
      "ship": 987,
      "lin": 988,
      "nam": 989,
      "mat": 990,
      "ask": 991,
      "night": 992,
      "ulti": 993,
      "80": 994,
      "cond": 995,
      ",\"": 996,
      "vol": 997,
      "Pr": 998,
      "given": 999,
      "mus": 1000,
      "ets": 1001,
      "books": 1002,
      "provide": 1003,
      "before": 1004,
      "point": 1005,
      "del": 1006,
      "human": 1007,
      "sto": 1008,
      "als": 1009,
      "Un": 1010,
      "gs": 1011,
      "balls": 1012,
      "comple": 1013,
      "draw": 1014,
      "Write": 1015,
      "ows": 1016,
      "mu": 1017,
      "eyes": 1018,
      "Let": 1019,
      "With": 1020,
      "ney": 1021,
      "distance": 1022,
      "struct": 1023,
      "ON": 1024,
      "make": 1025,
      "rel": 1026,
      "cer": 1027,
      "probability": 1028,
      "uses": 1029,
      "ique": 1030,
      "aut": 1031,
      "De": 1032,
      "must": 1033,
      "again": 1034,
      "speed": 1035,
      "here": 1036,
      "pat": 1037,
      "else": 1038,
      "Create": 1039,
      "bers": 1040,
      "land": 1041,
      "med": 1042,
      "prof": 1043,
      "different": 1044,
      "does": 1045,
      "sty": 1046,
      "love": 1047,
      "ton": 1048,
      "tim": 1049,
      "program": 1050,
      "clo": 1051,
      "off": 1052,
      "multi": 1053,
      "temp": 1054,
      "ress": 1055,
      "exp": 1056,
      "Co": 1057,
      "used": 1058,
      "ins": 1059,
      "mind": 1060,
      "jour": 1061,
      "well": 1062,
      "gener": 1063,
      "bal": 1064,
      "look": 1065,
      "may": 1066,
      "div": 1067,
      "table": 1068,
      "ush": 1069,
      "mis": 1070,
      "\":": 1071,
      "Final": 1072,
      "being": 1073,
      "200": 1074,
      "First": 1075,
      "connect": 1076,
      "beg": 1077,
      "ause": 1078,
      "ense": 1079,
      "cket": 1080,
      "express": 1081,
      "blue": 1082,
      "Des": 1083,
      "require": 1084,
      "face": 1085,
      "Tr": 1086,
      "Name": 1087,
      "high": 1088,
      "ute": 1089,
      "pop": 1090,
      "based": 1091,
      "test": 1092,
      "action": 1093,
      "ield": 1094,
      "incre": 1095,
      "oup": 1096,
      "always": 1097,
      "itle": 1098,
      "essage": 1099,
      "ength": 1100,
      "beh": 1101,
      "output": 1102,
      "))": 1103,
      "di": 1104,
      "Err": 1105,
      "ledge": 1106,
      "case": 1107,
      "spec": 1108,
      "ec": 1109,
      "load": 1110,
      "process": 1111,
      "Here": 1112,
      "->": 1113,
      "AI": 1114,
      "Bo": 1115,
      "System": 1116,
      "His": 1117,
      "mph": 1118,
      "irect": 1119,
      "ants": 1120,
      "wards": 1121,
      "Ad": 1122,
      "\\'": 1123,
      "Num": 1124,
      "ider": 1125,
      "Error": 1126,
      "LA": 1127,
      "during": 1128,
      "employe": 1129,
      "db": 1130,
      "remain": 1131,
      "journey": 1132,
      "feel": 1133,
      "ted": 1134,
      "!=": 1135,
      "deter": 1136,
      "New": 1137,
      "date": 1138,
      "ln": 1139,
      "script": 1140,
      "ories": 1141,
      "connection": 1142,
      "include": 1143,
      "those": 1144,
      "ross": 1145,
      "ref": 1146,
      "top": 1147,
      "ences": 1148,
      "itional": 1149,
      "500": 1150,
      "units": 1151,
      "king": 1152,
      "ator": 1153,
      "ime": 1154,
      "Each": 1155,
      "ub": 1156,
      "My": 1157,
      "much": 1158,
      "tre": 1159,
      "ouse": 1160,
      "void": 1161,
      "den": 1162,
      "duct": 1163,
      "history": 1164,
      "sum": 1165,
      "ding": 1166,
      "ared": 1167,
      "water": 1168,
      "run": 1169,
      "present": 1170,
      "type": 1171,
      "ek": 1172,
      "pain": 1173,
      "ython": 1174,
      "ait": 1175,
      "ality": 1176,
      "ident": 1177,
      "trans": 1178,
      "contin": 1179,
      "});": 1180,
      "experi": 1181,
      "la": 1182,
      "apples": 1183,
      "FOR": 1184,
      "sun": 1185,
      "average": 1186,
      "Number": 1187,
      "pot": 1188,
      "question": 1189,
      "sq": 1190,
      "beli": 1191,
      "tern": 1192,
      "gets": 1193,
      "very": 1194,
      "ception": 1195,
      "gy": 1196,
      "gether": 1197,
      "...": 1198,
      "aves": 1199,
      "wit": 1200,
      "did": 1201,
      "power": 1202,
      "years": 1203,
      "character": 1204,
      "]:": 1205,
      "ately": 1206,
      "\");": 1207,
      "att": 1208,
      "cy": 1209,
      "without": 1210,
      "sure": 1211,
      "knowledge": 1212,
      "error": 1213,
      "pur": 1214,
      "xim": 1215,
      "alth": 1216,
      "thought": 1217,
      "aring": 1218,
      "dou": 1219,
      "ats": 1220,
      "ides": 1221,
      "ry": 1222,
      "tool": 1223,
      "chat": 1224,
      "index": 1225,
      "multip": 1226,
      "length": 1227,
      "PLA": 1228,
      "ra": 1229,
      "bin": 1230,
      "towards": 1231,
      "sole": 1232,
      "phys": 1233,
      "MAT": 1234,
      "Lo": 1235,
      "ank": 1236,
      "ices": 1237,
      "ned": 1238,
      "unique": 1239,
      "graph": 1240,
      "member": 1241,
      "deep": 1242,
      "Ar": 1243,
      "ied": 1244,
      "don": 1245,
      "image": 1246,
      "ene": 1247,
      "spir": 1248,
      "prov": 1249,
      "INFOR": 1250,
      "INFORMAT": 1251,
      "another": 1252,
      "comes": 1253,
      "PLAINFORMAT": 1254,
      "last": 1255,
      "reason": 1256,
      "ash": 1257,
      "meters": 1258,
      "possi": 1259,
      "ized": 1260,
      "bec": 1261,
      "ax": 1262,
      "direct": 1263,
      "=>": 1264,
      "lang": 1265,
      "system": 1266,
      "three": 1267,
      "music": 1268,
      "EN": 1269,
      "gest": 1270,
      "mark": 1271,
      "cus": 1272,
      "However": 1273,
      "abase": 1274,
      "blo": 1275,
      "via": 1276,
      "reg": 1277,
      "oth": 1278,
      "mt": 1279,
      "Mo": 1280,
      "accur": 1281,
      "priv": 1282,
      "seem": 1283,
      "verse": 1284,
      "ines": 1285,
      "responses": 1286,
      "ivid": 1287,
      "break": 1288,
      "mb": 1289,
      "together": 1290,
      "UR": 1291,
      "File": 1292,
      "lead": 1293,
      "true": 1294,
      "sal": 1295,
      "expl": 1296,
      "open": 1297,
      "java": 1298,
      "say": 1299,
      "ited": 1300,
      "think": 1301,
      "ade": 1302,
      "ord": 1303,
      "made": 1304,
      "server": 1305,
      "mine": 1306,
      "List": 1307,
      "utes": 1308,
      "vel": 1309,
      "root": 1310,
      "perform": 1311,
      "ane": 1312,
      "18": 1313,
      "month": 1314,
      "following": 1315,
      "uck": 1316,
      "style": 1317,
      "az": 1318,
      "ustom": 1319,
      "ided": 1320,
      "Be": 1321,
      "round": 1322,
      "takes": 1323,
      "understanding": 1324,
      "myst": 1325,
      "cour": 1326,
      "amount": 1327,
      "price": 1328,
      "cast": 1329,
      "fic": 1330,
      "[]": 1331,
      "ons": 1332,
      "might": 1333,
      "child": 1334,
      "exist": 1335,
      "web": 1336,
      "sup": 1337,
      "dream": 1338,
      "=\"": 1339,
      "beaut": 1340,
      "database": 1341,
      "cas": 1342,
      "feet": 1343,
      "sql": 1344,
      "aily": 1345,
      "complex": 1346,
      "squ": 1347,
      "numbers": 1348,
      "fully": 1349,
      "move": 1350,
      "group": 1351,
      "Res": 1352,
      "company": 1353,
      "ix": 1354,
      "net": 1355,
      "oc": 1356,
      "tail": 1357,
      "dep": 1358,
      "gent": 1359,
      "wind": 1360,
      "ull": 1361,
      "ying": 1362,
      "ST": 1363,
      "making": 1364,
      "secre": 1365,
      "area": 1366,
      "field": 1367,
      "size": 1368,
      "upon": 1369,
      "times": 1370,
      "house": 1371,
      "sc": 1372,
      "ancient": 1373,
      "space": 1374,
      "final": 1375,
      "');": 1376,
      "flow": 1377,
      "soci": 1378,
      "aving": 1379,
      "includ": 1380,
      "message": 1381,
      "private": 1382,
      "RE": 1383,
      "pol": 1384,
      "ending": 1385,
      "minutes": 1386,
      "rect": 1387,
      "users": 1388,
      "ational": 1389,
      "title": 1390,
      "pite": 1391,
      "story": 1392,
      "signific": 1393,
      "call": 1394,
      "partic": 1395,
      "same": 1396,
      "yet": 1397,
      "password": 1398,
      "atures": 1399,
      "away": 1400,
      "Since": 1401,
      "meth": 1402,
      "tell": 1403,
      "discover": 1404,
      "writ": 1405,
      "\";": 1406,
      "ional": 1407,
      "client": 1408,
      "init": 1409,
      "ural": 1410,
      "proble": 1411,
      "langu": 1412,
      "ient": 1413,
      "won": 1414,
      "behind": 1415,
      "query": 1416,
      "sport": 1417,
      "vir": 1418,
      "products": 1419,
      "static": 1420,
      "techno": 1421,
      "println": 1422,
      "reven": 1423,
      "dec": 1424,
      "accurate": 1425,
      "ances": 1426,
      "account": 1427,
      "far": 1428,
      "rest": 1429,
      "++": 1430,
      "order": 1431,
      "loc": 1432,
      "values": 1433,
      "chall": 1434,
      "ground": 1435,
      "cing": 1436,
      "box": 1437,
      "Jo": 1438,
      "small": 1439,
      "icate": 1440,
      "simple": 1441,
      "Ste": 1442,
      "har": 1443,
      "sof": 1444,
      "named": 1445,
      "ward": 1446,
      "thor": 1447,
      "response": 1448,
      "gg": 1449,
      "design": 1450,
      "reach": 1451,
      "req": 1452,
      "ches": 1453,
      "consider": 1454,
      "combin": 1455,
      "Mr": 1456,
      "fac": 1457,
      "ula": 1458,
      "cout": 1459,
      "fig": 1460,
      "want": 1461,
      "flu": 1462,
      "PI": 1463,
      "ods": 1464,
      "items": 1465,
      "Set": 1466,
      "never": 1467,
      "Read": 1468,
      "rate": 1469,
      "sit": 1470,
      "_name": 1471,
      "ually": 1472,
      "grow": 1473,
      "ital": 1474,
      "potential": 1475,
      "16": 1476,
      "individ": 1477,
      "sight": 1478,
      "Product": 1479,
      "spect": 1480,
      "anal": 1481,
      "content": 1482,
      "twe": 1483,
      "various": 1484,
      "Ah": 1485,
      "ument": 1486,
      "sive": 1487,
      "links": 1488,
      "LE": 1489,
      "pick": 1490,
      "week": 1491,
      "individual": 1492,
      "ming": 1493,
      "tle": 1494,
      "?\"": 1495,
      "lar": 1496,
      "develop": 1497,
      "olution": 1498,
      "revenue": 1499,
      "dom": 1500,
      "mot": 1501,
      "sess": 1502,
      "custom": 1503,
      "post": 1504,
      "amp": 1505,
      "code": 1506,
      "cle": 1507,
      "pie": 1508,
      "second": 1509,
      "local": 1510,
      "orn": 1511,
      "ID": 1512,
      "ste": 1513,
      "show": 1514,
      "avor": 1515,
      "ample": 1516,
      "across": 1517,
      "forest": 1518,
      "widgets": 1519,
      "nature": 1520,
      "employees": 1521,
      "health": 1522,
      "trivia": 1523,
      "Ser": 1524,
      "nil": 1525,
      "ivity": 1526,
      "ism": 1527,
      "lif": 1528,
      "once": 1529,
      "past": 1530,
      "share": 1531,
      "double": 1532,
      "equation": 1533,
      "fin": 1534,
      "Qu": 1535,
      "commun": 1536,
      "met": 1537,
      "posit": 1538,
      "dele": 1539,
      "mean": 1540,
      "mill": 1541,
      "green": 1542,
      "unt": 1543,
      "email": 1544,
      "ann": 1545,
      "cinct": 1546,
      "intel": 1547,
      "Per": 1548,
      "Add": 1549,
      "succinct": 1550,
      "emot": 1551,
      "cription": 1552,
      "</": 1553,
      "API": 1554,
      "Time": 1555,
      "sent": 1556,
      "host": 1557,
      "console": 1558,
      "filled": 1559,
      "sil": 1560,
      "ify": 1561,
      "ese": 1562,
      "Python": 1563,
      "rand": 1564,
      "dri": 1565,
      "ger": 1566,
      "ically": 1567,
      "bro": 1568,
      "iding": 1569,
      "uni": 1570,
      "appe": 1571,
      "glass": 1572,
      "allow": 1573,
      "serv": 1574,
      "ience": 1575,
      "inser": 1576,
      "role": 1577,
      "ribut": 1578,
      "fmt": 1579,
      "soft": 1580,
      "Af": 1581,
      "ale": 1582,
      "ched": 1583,
      "change": 1584,
      "dern": 1585,
      "formula": 1586,
      "sor": 1587,
      "ony": 1588,
      "daily": 1589,
      "reasoning": 1590,
      "chang": 1591,
      "production": 1592,
      "delete": 1593,
      "wo": 1594,
      "ape": 1595,
      "factory": 1596,
      "ency": 1597,
      "Go": 1598,
      "request": 1599,
      "against": 1600,
      "problem": 1601,
      "SQ": 1602,
      "pp": 1603,
      "still": 1604,
      "status": 1605,
      "Your": 1606,
      "Fr": 1607,
      "quant": 1608,
      "Po": 1609,
      "ists": 1610,
      "moment": 1611,
      "determine": 1612,
      "ib": 1613,
      "travel": 1614,
      "Do": 1615,
      "language": 1616,
      "others": 1617,
      "passion": 1618,
      "Se": 1619,
      "orig": 1620,
      "send": 1621,
      "args": 1622,
      "tru": 1623,
      "display": 1624,
      "multiply": 1625,
      "interest": 1626,
      "family": 1627,
      "Next": 1628,
      "sense": 1629,
      "flo": 1630,
      "sort": 1631,
      "maintain": 1632,
      "Me": 1633,
      "fut": 1634,
      "dest": 1635,
      "aster": 1636,
      "URL": 1637,
      "tow": 1638,
      "augh": 1639,
      "state": 1640,
      "abo": 1641,
      "something": 1642,
      "square": 1643,
      "SQL": 1644,
      "bir": 1645,
      "home": 1646,
      "Ro": 1647,
      "since": 1648,
      "too": 1649,
      "Therefore": 1650,
      "care": 1651,
      "write": 1652,
      "array": 1653,
      "command": 1654,
      "eve": 1655,
      "significant": 1656,
      "vest": 1657,
      "convers": 1658,
      "ond": 1659,
      "og": 1660,
      "possible": 1661,
      "By": 1662,
      "ios": 1663,
      "ety": 1664,
      "because": 1665,
      "At": 1666,
      "erature": 1667,
      "access": 1668,
      "angle": 1669,
      "One": 1670,
      "sky": 1671,
      "pack": 1672,
      "When": 1673,
      "14": 1674,
      "asy": 1675,
      "adv": 1676,
      "view": 1677,
      "aps": 1678,
      "results": 1679,
      "Par": 1680,
      "success": 1681,
      "close": 1682,
      "grand": 1683,
      "good": 1684,
      "Her": 1685,
      "youn": 1686,
      "lies": 1687,
      "build": 1688,
      "catch": 1689,
      "modern": 1690,
      "ded": 1691,
      "func": 1692,
      "application": 1693,
      "24": 1694,
      "ier": 1695,
      "ired": 1696,
      "approxim": 1697,
      "cele": 1698,
      "ends": 1699,
      "valid": 1700,
      "keep": 1701,
      "wal": 1702,
      "solve": 1703,
      "That": 1704,
      "object": 1705,
      "After": 1706,
      "Cal": 1707,
      "friends": 1708,
      "Finally": 1709,
      "happ": 1710,
      "AR": 1711,
      "mit": 1712,
      "org": 1713,
      "leaves": 1714,
      "url": 1715,
      "sound": 1716,
      "remember": 1717,
      "event": 1718,
      "ailable": 1719,
      "ams": 1720,
      "centage": 1721,
      "balance": 1722,
      "pen": 1723,
      "alf": 1724,
      "least": 1725,
      "ury": 1726,
      "color": 1727,
      "approximately": 1728,
      "hold": 1729,
      "ilities": 1730,
      "SE": 1731,
      "ple": 1732,
      "certain": 1733,
      "Mar": 1734,
      "dark": 1735,
      "ased": 1736,
      "acity": 1737,
      "Despite": 1738,
      "aging": 1739,
      "great": 1740,
      "explor": 1741,
      "Ac": 1742,
      "endl": 1743,
      "scient": 1744,
      "invol": 1745,
      "represent": 1746,
      "bles": 1747,
      "ken": 1748,
      "tree": 1749,
      "ones": 1750,
      "ames": 1751,
      "300": 1752,
      "Ear": 1753,
      "cars": 1754,
      "joy": 1755,
      "among": 1756,
      "above": 1757,
      "million": 1758,
      "earch": 1759,
      "anim": 1760,
      "approach": 1761,
      "echo": 1762,
      "ible": 1763,
      "impro": 1764,
      "Print": 1765,
      "example": 1766,
      "creating": 1767,
      "())": 1768,
      "elements": 1769,
      "CT": 1770,
      "Id": 1771,
      "containing": 1772,
      "tion": 1773,
      "City": 1774,
      "Or": 1775,
      "needed": 1776,
      "histor": 1777,
      "Step": 1778,
      "future": 1779,
      "influ": 1780,
      "weather": 1781,
      "author": 1782,
      "ready": 1783,
      "technology": 1784,
      "')": 1785,
      "Not": 1786,
      "Cli": 1787,
      "dance": 1788,
      "stre": 1789,
      "including": 1790,
      "men": 1791,
      "conn": 1792,
      "said": 1793,
      "Sh": 1794,
      "bit": 1795,
      "due": 1796,
      "js": 1797,
      "Exception": 1798,
      "pattern": 1799,
      "Bu": 1800,
      "tran": 1801,
      "experience": 1802,
      "range": 1803,
      "cience": 1804,
      "On": 1805,
      "Out": 1806,
      "got": 1807,
      "simp": 1808,
      "begin": 1809,
      "town": 1810,
      "mid": 1811,
      "advent": 1812,
      "ering": 1813,
      "tect": 1814,
      "Le": 1815,
      "support": 1816,
      "Java": 1817,
      "full": 1818,
      "Develop": 1819,
      "_id": 1820,
      "best": 1821,
      "sle": 1822,
      "mental": 1823,
      "bus": 1824,
      "hn": 1825,
      "tra": 1826,
      "imple": 1827,
      "inary": 1828,
      "seen": 1829,
      "viron": 1830,
      "Emp": 1831,
      "dig": 1832,
      "iss": 1833,
      "ulation": 1834,
      "ills": 1835,
      "vari": 1836,
      "gen": 1837,
      "stor": 1838,
      "ified": 1839,
      "beauty": 1840,
      "challeng": 1841,
      "whis": 1842,
      "plain": 1843,
      "called": 1844,
      "null": 1845,
      "rows": 1846,
      "Enter": 1847,
      "personal": 1848,
      "RO": 1849,
      "mor": 1850,
      "non": 1851,
      "warm": 1852,
      "exec": 1853,
      "wom": 1854,
      "_path": 1855,
      "children": 1856,
      "Col": 1857,
      "fur": 1858,
      "rop": 1859,
      "fall": 1860,
      "sw": 1861,
      "rad": 1862,
      "discus": 1863,
      "ization": 1864,
      "energy": 1865,
      "meric": 1866,
      "Val": 1867,
      "meet": 1868,
      "ric": 1869,
      "refer": 1870,
      "ither": 1871,
      "aren": 1872,
      "width": 1873,
      "por": 1874,
      "rele": 1875,
      "stream": 1876,
      "uel": 1877,
      "Americ": 1878,
      "ination": 1879,
      "environ": 1880,
      "ga": 1881,
      "cry": 1882,
      "11": 1883,
      "random": 1884,
      "along": 1885,
      "Search": 1886,
      "iled": 1887,
      "ah": 1888,
      "ctor": 1889,
      "trad": 1890,
      "model": 1891,
      "TE": 1892,
      "lay": 1893,
      "uc": 1894,
      "atural": 1895,
      "Calcul": 1896,
      "redu": 1897,
      "common": 1898,
      "Cl": 1899,
      "smo": 1900,
      "dear": 1901,
      "going": 1902,
      "Can": 1903,
      "Dat": 1904,
      "gir": 1905,
      "swe": 1906,
      "watch": 1907,
      "fee": 1908,
      "nov": 1909,
      "universe": 1910,
      "gor": 1911,
      "effect": 1912,
      "store": 1913,
      "John": 1914,
      "offer": 1915,
      "['": 1916,
      "capacity": 1917,
      "young": 1918,
      "stop": 1919,
      "typ": 1920,
      "required": 1921,
      "invest": 1922,
      "36": 1923,
      "Text": 1924,
      "ler": 1925,
      "whisper": 1926,
      "rout": 1927,
      "sequ": 1928,
      "Ev": 1929,
      "']": 1930,
      "Use": 1931,
      "bar": 1932,
      "sar": 1933,
      "description": 1934,
      "dreams": 1935,
      "initial": 1936,
      "produces": 1937,
      "120": 1938,
      "150": 1939,
      "pair": 1940,
      "istic": 1941,
      "itions": 1942,
      "insert": 1943,
      "directory": 1944,
      "Earth": 1945,
      "stars": 1946,
      "logical": 1947,
      "istance": 1948,
      "context": 1949,
      "vast": 1950,
      "Ty": 1951,
      "aim": 1952,
      "gard": 1953,
      "ource": 1954,
      "Their": 1955,
      "available": 1956,
      "These": 1957,
      "explo": 1958,
      "check": 1959,
      "roll": 1960,
      "://": 1961,
      "laugh": 1962,
      "magic": 1963,
      "reci": 1964,
      "ilo": 1965,
      "hous": 1966,
      "science": 1967,
      "cup": 1968,
      "insight": 1969,
      "height": 1970,
      "cult": 1971,
      "half": 1972,
      "quite": 1973,
      "uest": 1974,
      "ished": 1975,
      "\"]": 1976,
      "lection": 1977,
      "ascin": 1978,
      "ament": 1979,
      "ell": 1980,
      "favor": 1981,
      "glow": 1982,
      "umn": 1983,
      "divide": 1984,
      "AN": 1985,
      "All": 1986,
      "intr": 1987,
      "libr": 1988,
      "costs": 1989,
      "aud": 1990,
      "coun": 1991,
      "py": 1992,
      "short": 1993,
      "bert": 1994,
      "doc": 1995,
      "Book": 1996,
      "vert": 1997,
      "era": 1998,
      "conf": 1999,
      "myster": 2000,
      "until": 2001,
      "note": 2002,
      "selves": 2003,
      "Town": 2004,
      "];": 2005,
      "dle": 2006,
      "isn": 2007,
      "techn": 2008,
      "bur": 2009,
      "means": 2010,
      "({": 2011,
      "natural": 2012,
      "push": 2013,
      "expect": 2014,
      "rather": 2015,
      "sim": 2016,
      "usion": 2017,
      "shad": 2018,
      "specific": 2019,
      "your_": 2020,
      "impact": 2021,
      "stories": 2022,
      "pose": 2023,
      "Respon": 2024,
      "sou": 2025,
      "':": 2026,
      "13": 2027,
      "recor": 2028,
      "75": 2029,
      "Gre": 2030,
      "inci": 2031,
      "fort": 2032,
      "characters": 2033,
      "cut": 2034,
      "plac": 2035,
      "Well": 2036,
      "remaining": 2037,
      "secret": 2038,
      "fascin": 2039,
      "bound": 2040,
      "rain": 2041,
      "listen": 2042,
      "fle": 2043,
      "ally": 2044,
      "aper": 2045,
      "reflect": 2046,
      "entire": 2047,
      "rig": 2048,
      "RU": 2049,
      "respect": 2050,
      "produced": 2051,
      "lands": 2052,
      "bed": 2053,
      "iness": 2054,
      "analy": 2055,
      "Client": 2056,
      "ml": 2057,
      "proper": 2058,
      "itect": 2059,
      "Spe": 2060,
      "late": 2061,
      "aries": 2062,
      "today": 2063,
      "SON": 2064,
      "User": 2065,
      "tou": 2066,
      "wall": 2067,
      "aken": 2068,
      "UT": 2069,
      "depart": 2070,
      "Cont": 2071,
      "bucket": 2072,
      "hol": 2073,
      "structure": 2074,
      "tools": 2075,
      "Hand": 2076,
      "leg": 2077,
      "bel": 2078,
      "exact": 2079,
      "Fun": 2080,
      "kind": 2081,
      "izing": 2082,
      "colors": 2083,
      "capt": 2084,
      "DB": 2085,
      "sco": 2086,
      "enter": 2087,
      "points": 2088,
      "_node": 2089,
      "await": 2090,
      "stri": 2091,
      "Int": 2092,
      "());": 2093,
      "constant": 2094,
      "position": 2095,
      "90": 2096,
      "ffer": 2097,
      "invent": 2098,
      "concept": 2099,
      "surround": 2100,
      "spirit": 2101,
      "houses": 2102,
      "sever": 2103,
      "lig": 2104,
      "social": 2105,
      "hands": 2106,
      "rece": 2107,
      "works": 2108,
      "physical": 2109,
      "gall": 2110,
      "game": 2111,
      "sion": 2112,
      "ays": 2113,
      "iment": 2114,
      "[\"": 2115,
      "lives": 2116,
      "----": 2117,
      "wait": 2118,
      "piece": 2119,
      "Sp": 2120,
      "ris": 2121,
      "INT": 2122,
      "erson": 2123,
      "ives": 2124,
      "correct": 2125,
      "large": 2126,
      "45": 2127,
      "filter": 2128,
      "clear": 2129,
      "ously": 2130,
      "produce": 2131,
      "profound": 2132,
      "eneath": 2133,
      "Data": 2134,
      "Path": 2135,
      "mach": 2136,
      "drawing": 2137,
      "iosity": 2138,
      "interact": 2139,
      "Inde": 2140,
      "black": 2141,
      "inste": 2142,
      "ore": 2143,
      "additional": 2144,
      "trees": 2145,
      "ca": 2146,
      "dies": 2147,
      "lock": 2148,
      "iful": 2149,
      "gentle": 2150,
      "sleep": 2151,
      "Calculate": 2152,
      "AL": 2153,
      "ivil": 2154,
      "trip": 2155,
      "visit": 2156,
      "free": 2157,
      "craf": 2158,
      "expression": 2159,
      ":]": 2160,
      "files": 2161,
      "arry": 2162,
      "little": 2163,
      "Comp": 2164,
      "nor": 2165,
      "contribut": 2166,
      "subtract": 2167,
      "ager": 2168,
      "Who": 2169,
      "Conne": 2170,
      "From": 2171,
      "cat": 2172,
      "ges": 2173,
      "swer": 2174,
      "strong": 2175,
      "${": 2176,
      "anced": 2177,
      "forms": 2178,
      "uments": 2179,
      "Then": 2180,
      "Answer": 2181,
      "((": 2182,
      "17": 2183,
      "offee": 2184,
      "cogn": 2185,
      "term": 2186,
      "Dis": 2187,
      "rid": 2188,
      "lot": 2189,
      "oney": 2190,
      "cand": 2191,
      "wide": 2192,
      "itself": 2193,
      "detail": 2194,
      "cannot": 2195,
      "Em": 2196,
      "ology": 2197,
      "Evidence": 2198,
      "!\"": 2199,
      "**": 2200,
      "Distance": 2201,
      "ged": 2202,
      "heav": 2203,
      "ache": 2204,
      "fel": 2205,
      "'.": 2206,
      "Up": 2207,
      "ires": 2208,
      "nav": 2209,
      "popular": 2210,
      "JSON": 2211,
      "ench": 2212,
      "weight": 2213,
      "numer": 2214,
      "either": 2215,
      "wis": 2216,
      "lost": 2217,
      "project": 2218,
      "curiosity": 2219,
      "travels": 2220,
      "live": 2221,
      "ries": 2222,
      "board": 2223,
      "Mon": 2224,
      "four": 2225,
      "oud": 2226,
      "abor": 2227,
      "remind": 2228,
      "asks": 2229,
      "vibr": 2230,
      "commit": 2231,
      "\".": 2232,
      "arri": 2233,
      "continue": 2234,
      "Wor": 2235,
      "alle": 2236,
      "alse": 2237,
      "notes": 2238,
      "food": 2239,
      "believe": 2240,
      "ES": 2241,
      "cursor": 2242,
      "profit": 2243,
      "pal": 2244,
      "ined": 2245,
      "idden": 2246,
      "canner": 2247,
      "makes": 2248,
      "garden": 2249,
      "ision": 2250,
      "asure": 2251,
      "unit": 2252,
      "ateg": 2253,
      "fet": 2254,
      "famous": 2255,
      "historical": 2256,
      "Reader": 2257,
      "_file": 2258,
      "ru": 2259,
      "acy": 2260,
      "format": 2261,
      "passeng": 2262,
      "Type": 2263,
      "methods": 2264,
      "));": 2265,
      "HT": 2266,
      "hy": 2267,
      "nc": 2268,
      "Oh": 2269,
      "Yet": 2270,
      "util": 2271,
      "near": 2272,
      "perfect": 2273,
      "api": 2274,
      "Request": 2275,
      "ume": 2276,
      "ife": 2277,
      "iven": 2278,
      "events": 2279,
      "cir": 2280,
      "elect": 2281,
      "ped": 2282,
      "ases": 2283,
      "coffee": 2284,
      "creatures": 2285,
      "indeed": 2286,
      "lose": 2287,
      "dog": 2288,
      "humor": 2289,
      "steps": 2290,
      "($": 2291,
      "ients": 2292,
      "ron": 2293,
      "rodu": 2294,
      "forward": 2295,
      "pract": 2296,
      "began": 2297,
      "mbol": 2298,
      ".,": 2299,
      "sn": 2300,
      "himself": 2301,
      "scientific": 2302,
      "Arr": 2303,
      "library": 2304,
      "ech": 2305,
      "ium": 2306,
      "innov": 2307,
      "imag": 2308,
      "upload": 2309,
      "marbles": 2310,
      "ailed": 2311,
      "choice": 2312,
      "employee": 2313,
      "reads": 2314,
      "increase": 2315,
      "(!": 2316,
      "stack": 2317,
      "reality": 2318,
      "operations": 2319,
      "Au": 2320,
      "eter": 2321,
      "bey": 2322,
      "que": 2323,
      "('/": 2324,
      "wisdom": 2325,
      "ik": 2326,
      "Jane": 2327,
      "glo": 2328,
      "len": 2329,
      "original": 2330,
      "dir": 2331,
      "slow": 2332,
      "living": 2333,
      "ables": 2334,
      "hope": 2335,
      "setting": 2336,
      "ships": 2337,
      "blob": 2338,
      "Solution": 2339,
      "hard": 2340,
      "update": 2341,
      "method": 2342,
      "picking": 2343,
      "Value": 2344,
      "amid": 2345,
      "earth": 2346,
      "cape": 2347,
      "period": 2348,
      "course": 2349,
      "insp": 2350,
      "architect": 2351,
      "aur": 2352,
      "bag": 2353,
      "engine": 2354,
      "execute": 2355,
      "Get": 2356,
      "things": 2357,
      "username": 2358,
      "determin": 2359,
      "particular": 2360,
      "exactly": 2361,
      "task": 2362,
      "sea": 2363,
      "memory": 2364,
      "dim": 2365,
      "reng": 2366,
      "patterns": 2367,
      "Com": 2368,
      "beneath": 2369,
      "hidden": 2370,
      "tar": 2371,
      "inv": 2372,
      "socket": 2373,
      "coming": 2374,
      "century": 2375,
      "navig": 2376,
      "ius": 2377,
      "},": 2378,
      "door": 2379,
      "Cost": 2380,
      "sweet": 2381,
      "Are": 2382,
      "civil": 2383,
      "choose": 2384,
      "Alice": 2385,
      "ps": 2386,
      "aling": 2387,
      "breath": 2388,
      "fron": 2389,
      "BE": 2390,
      "flight": 2391,
      "save": 2392,
      "equal": 2393,
      "touch": 2394,
      "hor": 2395,
      "maj": 2396,
      "html": 2397,
      "complete": 2398,
      "Server": 2399,
      "playing": 2400,
      "parame": 2401,
      "everyone": 2402,
      "aterial": 2403,
      "Line": 2404,
      "ping": 2405,
      "||": 2406,
      "stial": 2407,
      "resh": 2408,
      "Extract": 2409,
      "digital": 2410,
      "mir": 2411,
      "itive": 2412,
      "bring": 2413,
      "Stud": 2414,
      "symbol": 2415,
      "Char": 2416,
      "physics": 2417,
      "beyond": 2418,
      "Ap": 2419,
      "cu": 2420,
      "sell": 2421,
      "voice": 2422,
      "consum": 2423,
      "ha": 2424,
      "ths": 2425,
      "().": 2426,
      "needs": 2427,
      "population": 2428,
      "bot": 2429,
      "uation": 2430,
      "exper": 2431,
      "looking": 2432,
      "Che": 2433,
      "rol": 2434,
      "spark": 2435,
      "running": 2436,
      "tic": 2437,
      "struction": 2438,
      "mile": 2439,
      "pet": 2440,
      "streng": 2441,
      "Engl": 2442,
      "experiences": 2443,
      "department": 2444,
      "gold": 2445,
      "mount": 2446,
      "why": 2447,
      "aught": 2448,
      "pursu": 2449,
      "improve": 2450,
      "gaze": 2451,
      "Duck": 2452,
      "sug": 2453,
      "num2": 2454,
      "study": 2455,
      "Man": 2456,
      "athe": 2457,
      "python": 2458,
      "accept": 2459,
      "letter": 2460,
      "secrets": 2461,
      "celestial": 2462,
      "AM": 2463,
      "token": 2464,
      "exc": 2465,
      "better": 2466,
      "join": 2467,
      "magical": 2468,
      "literature": 2469,
      "growth": 2470,
      "bud": 2471,
      "asing": 2472,
      "ples": 2473,
      "max": 2474,
      "factor": 2475,
      "market": 2476,
      "sports": 2477,
      "Car": 2478,
      "hair": 2479,
      "pay": 2480,
      "win": 2481,
      "aged": 2482,
      "ended": 2483,
      "stry": 2484,
      "vious": 2485,
      "questions": 2486,
      "sat": 2487,
      "};": 2488,
      "outcomes": 2489,
      "glasses": 2490,
      "walk": 2491,
      "fire": 2492,
      "atic": 2493,
      "allows": 2494,
      "reading": 2495,
      "matic": 2496,
      "continu": 2497,
      "salary": 2498,
      "Ob": 2499,
      "pho": 2500,
      "rown": 2501,
      "iction": 2502,
      "generate": 2503,
      "wonder": 2504,
      "tweets": 2505,
      "Account": 2506,
      "pages": 2507,
      "star": 2508,
      "rix": 2509,
      "ift": 2510,
      "State": 2511,
      "learn": 2512,
      "customer": 2513,
      "intricate": 2514,
      "Response": 2515,
      "Our": 2516,
      "pret": 2517,
      "provided": 2518,
      "give": 2519,
      "ived": 2520,
      "updat": 2521,
      "maxim": 2522,
      "realm": 2523,
      "occur": 2524,
      "whe": 2525,
      "become": 2526,
      "],": 2527,
      "eper": 2528,
      "ened": 2529,
      "ently": 2530,
      "ongo": 2531,
      "quantum": 2532,
      "further": 2533,
      "peace": 2534,
      "special": 2535,
      "Of": 2536,
      "cook": 2537,
      "mand": 2538,
      "enses": 2539,
      "Given": 2540,
      "taking": 2541,
      "cell": 2542,
      "minim": 2543,
      "student": 2544,
      "stood": 2545,
      "za": 2546,
      "moon": 2547,
      "argv": 2548,
      "soph": 2549,
      "appreci": 2550,
      "session": 2551,
      "%.": 2552,
      "Pri": 2553,
      "Title": 2554,
      "ior": 2555,
      "ativity": 2556,
      "Array": 2557,
      "reve": 2558,
      "deli": 2559,
      "extract": 2560,
      "emer": 2561,
      ")^": 2562,
      "[:": 2563,
      "material": 2564,
      "shared": 2565,
      "num1": 2566,
      "400": 2567,
      "LL": 2568,
      "percentage": 2569,
      "shap": 2570,
      "parse": 2571,
      "fru": 2572,
      "exploration": 2573,
      "33": 2574,
      "DE": 2575,
      "mix": 2576,
      "narr": 2577,
      "rich": 2578,
      "zz": 2579,
      "changes": 2580,
      "frequ": 2581,
      "select": 2582,
      "ader": 2583,
      "element": 2584,
      "individuals": 2585,
      "vibrant": 2586,
      "haps": 2587,
      "link": 2588,
      "spl": 2589,
      "While": 2590,
      "parser": 2591,
      "intellect": 2592,
      "Output": 2593,
      "fs": 2594,
      "ike": 2595,
      "tall": 2596,
      "separ": 2597,
      "None": 2598,
      "ban": 2599,
      "cv": 2600,
      "edge": 2601,
      "dev": 2602,
      "fear": 2603,
      "instance": 2604,
      "Message": 2605,
      "iet": 2606,
      "map": 2607,
      "spr": 2608,
      "ley": 2609,
      "yourself": 2610,
      "foot": 2611,
      "Cur": 2612,
      "Imag": 2613,
      "lease": 2614,
      "tural": 2615,
      "1000": 2616,
      "Person": 2617,
      "mal": 2618,
      "though": 2619,
      "inches": 2620,
      "atus": 2621,
      "chan": 2622,
      "enchant": 2623,
      "sav": 2624,
      "educ": 2625,
      "annual": 2626,
      "challenges": 2627,
      "fing": 2628,
      "ians": 2629,
      "throughout": 2630,
      "responding": 2631,
      "iques": 2632,
      "learning": 2633,
      "location": 2634,
      "Fl": 2635,
      "sed": 2636,
      "inside": 2637,
      "ains": 2638,
      "install": 2639,
      "Bl": 2640,
      "ring": 2641,
      "vector": 2642,
      "astro": 2643,
      "speak": 2644,
      "descri": 2645,
      "operation": 2646,
      "container": 2647,
      "favorite": 2648,
      "male": 2649,
      "returns": 2650,
      "solution": 2651,
      "guide": 2652,
      "rooms": 2653,
      "possib": 2654,
      "American": 2655,
      "five": 2656,
      "70": 2657,
      "psy": 2658,
      "antic": 2659,
      "ieve": 2660,
      "painting": 2661,
      "graphy": 2662,
      "emotions": 2663,
      "sl": 2664,
      "sides": 2665,
      "empty": 2666,
      "harmon": 2667,
      "several": 2668,
      "enef": 2669,
      "took": 2670,
      "ilar": 2671,
      "started": 2672,
      "truly": 2673,
      "photo": 2674,
      ">>": 2675,
      "aws": 2676,
      "target": 2677,
      "ault": 2678,
      "money": 2679,
      "perspect": 2680,
      "anges": 2681,
      "ging": 2682,
      "abilities": 2683,
      "adding": 2684,
      "doesn": 2685,
      "28": 2686,
      "came": 2687,
      "fuel": 2688,
      "amb": 2689,
      "features": 2690,
      "myself": 2691,
      "END": 2692,
      "flowers": 2693,
      "writing": 2694,
      "animals": 2695,
      "girls": 2696,
      "KE": 2697,
      "mere": 2698,
      "arts": 2699,
      "boys": 2700,
      "white": 2701,
      "params": 2702,
      "mphony": 2703,
      "providing": 2704,
      "Sol": 2705,
      "eks": 2706,
      "beautiful": 2707,
      "implement": 2708,
      "Employe": 2709,
      "Open": 2710,
      "knew": 2711,
      "achieve": 2712,
      "cks": 2713,
      "vie": 2714,
      "QA": 2715,
      "princi": 2716,
      "someone": 2717,
      "adventure": 2718,
      "Imagine": 2719,
      "OT": 2720,
      "ket": 2721,
      "ena": 2722,
      "enough": 2723,
      "und": 2724,
      "ival": 2725,
      "anger": 2726,
      "became": 2727,
      "organ": 2728,
      "ROM": 2729,
      "Index": 2730,
      "Ne": 2731,
      "bor": 2732,
      "gather": 2733,
      "ww": 2734,
      "themselves": 2735,
      "evidence0": 2736,
      "Eli": 2737,
      "Writ": 2738,
      "park": 2739,
      "personality": 2740,
      "believ": 2741,
      "(`": 2742,
      "pun": 2743,
      "loy": 2744,
      "terms": 2745,
      "necess": 2746,
      "budget": 2747,
      "\"\"": 2748,
      "serve": 2749,
      "single": 2750,
      "Please": 2751,
      "].": 2752,
      "km": 2753,
      "pan": 2754,
      "delight": 2755,
      "evolution": 2756,
      "dogs": 2757,
      "ATE": 2758,
      "figure": 2759,
      "Over": 2760,
      "master": 2761,
      "tasks": 2762,
      "arance": 2763,
      "nothing": 2764,
      "Why": 2765,
      "Web": 2766,
      "effic": 2767,
      "gorith": 2768,
      "felt": 2769,
      "\">": 2770,
      "stone": 2771,
      "illi": 2772,
      "matter": 2773,
      "leading": 2774,
      "fit": 2775,
      "agon": 2776,
      "ender": 2777,
      "mess": 2778,
      "Init": 2779,
      "everything": 2780,
      "azz": 2781,
      "fascinating": 2782,
      "ION": 2783,
      "conom": 2784,
      "specified": 2785,
      "development": 2786,
      "Speed": 2787,
      "Ed": 2788,
      "Life": 2789,
      "hab": 2790,
      "ost": 2791,
      "rh": 2792,
      "lean": 2793,
      "shar": 2794,
      "surface": 2795,
      "ordinary": 2796,
      "ligence": 2797,
      "Key": 2798,
      "fast": 2799,
      "van": 2800,
      "onto": 2801,
      "research": 2802,
      "actions": 2803,
      "expected": 2804,
      "paren": 2805,
      "sold": 2806,
      "taken": 2807,
      "explore": 2808,
      "Is": 2809,
      "Red": 2810,
      "eye": 2811,
      "page": 2812,
      "replace": 2813,
      "held": 2814,
      "Us": 2815,
      "bri": 2816,
      "bio": 2817,
      "cache": 2818,
      "stra": 2819,
      "multiple": 2820,
      "seemed": 2821,
      "woman": 2822,
      "tical": 2823,
      "conditions": 2824,
      "FROM": 2825,
      "ancing": 2826,
      "itch": 2827,
      "imm": 2828,
      "twice": 2829,
      "important": 2830,
      "contains": 2831,
      "shadows": 2832,
      "Imple": 2833,
      "][": 2834,
      "itude": 2835,
      "quick": 2836,
      "communication": 2837,
      "fill": 2838,
      "ention": 2839,
      "name__": 2840,
      "cru": 2841,
      "__name__": 2842,
      "mysteries": 2843,
      "techniques": 2844,
      "Implement": 2845,
      "Ma": 2846,
      "mes": 2847,
      "pa": 2848,
      "comput": 2849,
      "conversation": 2850,
      "rhyth": 2851,
      "HER": 2852,
      "Ite": 2853,
      "cs": 2854,
      "algorith": 2855,
      "Invalid": 2856,
      "likely": 2857,
      "previous": 2858,
      "discovery": 2859,
      "Hel": 2860,
      "gin": 2861,
      "lon": 2862,
      "created": 2863,
      "chool": 2864,
      "basket": 2865,
      "culture": 2866,
      "Just": 2867,
      "rough": 2868,
      "remove": 2869,
      "extra": 2870,
      "series": 2871,
      "Which": 2872,
      "testament": 2873,
      "remains": 2874,
      "faces": 2875,
      "country": 2876,
      "Bob": 2877,
      "RI": 2878,
      "Script": 2879,
      "lying": 2880,
      "few": 2881,
      "Status": 2882,
      "relation": 2883,
      "transform": 2884,
      "match": 2885,
      "ensive": 2886,
      "meter": 2887,
      "package": 2888,
      "atter": 2889,
      "level": 2890,
      "team": 2891,
      "activ": 2892,
      "spent": 2893,
      "manage": 2894,
      "portun": 2895,
      "positive": 2896,
      "Post": 2897,
      "async": 2898,
      "pound": 2899,
      "stage": 2900,
      "phen": 2901,
      "Remember": 2902,
      "factors": 2903,
      "soul": 2904,
      "passengers": 2905,
      "250": 2906,
      "pred": 2907,
      "source": 2908,
      "ug": 2909,
      "thus": 2910,
      "detect": 2911,
      "ils": 2912,
      "agr": 2913,
      "append": 2914,
      "names": 2915,
      "Im": 2916,
      "SER": 2917,
      "Sub": 2918,
      "_data": 2919,
      "ny": 2920,
      "aspect": 2921,
      "delet": 2922,
      "utions": 2923,
      "cious": 2924,
      "download": 2925,
      "skills": 2926,
      "Additional": 2927,
      "Sal": 2928,
      "benef": 2929,
      "ulate": 2930,
      "ctions": 2931,
      "engaging": 2932,
      "symphony": 2933,
      "working": 2934,
      "functions": 2935,
      "True": 2936,
      "base": 2937,
      "leaving": 2938,
      "ird": 2939,
      "sho": 2940,
      "sets": 2941,
      "corpor": 2942,
      "Prof": 2943,
      "Writer": 2944,
      "Dav": 2945,
      "scre": 2946,
      "ered": 2947,
      "outer": 2948,
      "Always": 2949,
      "])": 2950,
      "wr": 2951,
      "}\")": 2952,
      "aces": 2953,
      "column": 2954,
      "traditional": 2955,
      "types": 2956,
      "Content": 2957,
      "Gr": 2958,
      "Ver": 2959,
      "born": 2960,
      "onic": 2961,
      "quantity": 2962,
      "fetch": 2963,
      "CH": 2964,
      "pul": 2965,
      "legs": 2966,
      "mode": 2967,
      "song": 2968,
      "discount": 2969,
      "Lu": 2970,
      "NOT": 2971,
      "Ph": 2972,
      "tes": 2973,
      "wants": 2974,
      "ingly": 2975,
      "forget": 2976,
      "tales": 2977,
      "Some": 2978,
      "feeling": 2979,
      "business": 2980,
      "`,": 2981,
      "econom": 2982,
      "retri": 2983,
      "revol": 2984,
      "opportun": 2985,
      "localhost": 2986,
      "wood": 2987,
      "Link": 2988,
      "Pre": 2989,
      "saw": 2990,
      "already": 2991,
      "early": 2992,
      "respond": 2993,
      "Mrs": 2994,
      "intelligence": 2995,
      "cosmo": 2996,
      "ension": 2997,
      "standing": 2998,
      "fields": 2999,
      "score": 3000,
      "CRE": 3001,
      "nal": 3002,
      "sump": 3003,
      "https": 3004,
      "amidst": 3005,
      "AS": 3006,
      "Don": 3007,
      "father": 3008,
      "having": 3009,
      "(\"/": 3010,
      "frame": 3011,
      "mist": 3012,
      "loss": 3013,
      "shape": 3014,
      "bodies": 3015,
      "enced": 3016,
      "ORT": 3017,
      "traveled": 3018,
      "environment": 3019,
      "+=": 3020,
      "rise": 3021,
      "wise": 3022,
      "inspir": 3023,
      "End": 3024,
      "evidence1": 3025,
      "discovered": 3026,
      "PUT": 3027,
      "ured": 3028,
      "encour": 3029,
      "sys": 3030,
      "Albert": 3031,
      "vision": 3032,
      "insights": 3033,
      "PORT": 3034,
      "Tri": 3035,
      "cean": 3036,
      "phone": 3037,
      "importance": 3038,
      "famil": 3039,
      "belief": 3040,
      "Function": 3041,
      "Every": 3042,
      "worth": 3043,
      "designed": 3044,
      "customers": 3045,
      "Bar": 3046,
      "Cap": 3047,
      "Close": 3048,
      "images": 3049,
      "add_": 3050,
      "polit": 3051,
      "craft": 3052,
      "Initial": 3053,
      "fell": 3054,
      "embr": 3055,
      "prefer": 3056,
      "really": 3057,
      "seems": 3058,
      "ficult": 3059,
      "sorted": 3060,
      "morning": 3061,
      "gallons": 3062,
      "GIN": 3063,
      "Sam": 3064,
      "uro": 3065,
      "inct": 3066,
      "deeper": 3067,
      "ources": 3068,
      "ifact": 3069,
      "Input": 3070,
      "Stream": 3071,
      "Replace": 3072,
      "Ital": 3073,
      "fair": 3074,
      "vill": 3075,
      "ork": 3076,
      "lie": 3077,
      "optim": 3078,
      "main__": 3079,
      "thrill": 3080,
      "cultural": 3081,
      "__main__": 3082,
      "Query": 3083,
      "transport": 3084,
      "cities": 3085,
      "da": 3086,
      "theory": 3087,
      "ilt": 3088,
      "vels": 3089,
      "unch": 3090,
      "prep": 3091,
      "emotional": 3092,
      "maximum": 3093,
      "iter": 3094,
      "els": 3095,
      "BEGIN": 3096,
      "strength": 3097,
      "suggest": 3098,
      "KEY": 3099,
      "cise": 3100,
      "false": 3101,
      "gain": 3102,
      "integr": 3103,
      "connected": 3104,
      "scen": 3105,
      "society": 3106,
      "laughter": 3107,
      "E1": 3108,
      "Sum": 3109,
      "det": 3110,
      "quiet": 3111,
      "aste": 3112,
      "sphere": 3113,
      "tale": 3114,
      "difficult": 3115,
      "Area": 3116,
      "IO": 3117,
      "ump": 3118,
      "iting": 3119,
      "associ": 3120,
      "sharing": 3121,
      "foc": 3122,
      "cording": 3123,
      "behav": 3124,
      "existence": 3125,
      "Connection": 3126,
      "CS": 3127,
      "demand": 3128,
      "artifact": 3129,
      "particularly": 3130,
      "ET": 3131,
      "bran": 3132,
      "ashion": 3133,
      "35": 3134,
      "_key": 3135,
      "mic": 3136,
      "rat": 3137,
      "limit": 3138,
      "contemp": 3139,
      "weeks": 3140,
      "finds": 3141,
      "ails": 3142,
      "tweet": 3143,
      "route": 3144,
      "parameter": 3145,
      "21": 3146,
      "James": 3147,
      "told": 3148,
      "shall": 3149,
      "ively": 3150,
      "thoughts": 3151,
      "Jack": 3152,
      "cross": 3153,
      "lish": 3154,
      "national": 3155,
      "stay": 3156,
      "concl": 3157,
      "control": 3158,
      "rench": 3159,
      "apple": 3160,
      "volume": 3161,
      "witch": 3162,
      "Percentage": 3163,
      "requests": 3164,
      "major": 3165,
      "HERE": 3166,
      "&&": 3167,
      "600": 3168,
      "NU": 3169,
      "WHERE": 3170,
      "school": 3171,
      "wel": 3172,
      "promot": 3173,
      "Yes": 3174,
      "Statement": 3175,
      "csv": 3176,
      "astr": 3177,
      "hot": 3178,
      "perhaps": 3179,
      "aint": 3180,
      "possess": 3181,
      "basic": 3182,
      "floor": 3183,
      "destination": 3184,
      "ename": 3185,
      "teach": 3186,
      "profess": 3187,
      "combinations": 3188,
      "sites": 3189,
      "big": 3190,
      "buses": 3191,
      "fight": 3192,
      "zer": 3193,
      "paint": 3194,
      "explain": 3195,
      "ptr": 3196,
      "melo": 3197,
      "ounter": 3198,
      "Its": 3199,
      "bash": 3200,
      "NULL": 3201,
      "Quest": 3202,
      "ff": 3203,
      "celebr": 3204,
      "48": 3205,
      "bright": 3206,
      "gress": 3207,
      "iny": 3208,
      "brid": 3209,
      "lines": 3210,
      "conversations": 3211,
      "walls": 3212,
      "sharp": 3213,
      "Item": 3214,
      "York": 3215,
      "season": 3216,
      "OST": 3217,
      "collect": 3218,
      "particip": 3219,
      "involves": 3220,
      "influence": 3221,
      "';": 3222,
      "cats": 3223,
      "third": 3224,
      "usage": 3225,
      "wearing": 3226,
      "otes": 3227,
      "quality": 3228,
      "bling": 3229,
      "turned": 3230,
      ".\")": 3231,
      "fective": 3232,
      "World": 3233,
      "mary": 3234,
      "env": 3235,
      "cosm": 3236,
      "sume": 3237,
      "():": 3238,
      "Stack": 3239,
      "smile": 3240,
      "audience": 3241,
      "bust": 3242,
      "resil": 3243,
      "super": 3244,
      "lower": 3245,
      "interpret": 3246,
      "stead": 3247,
      "cosmos": 3248,
      "issu": 3249,
      "neg": 3250,
      "compan": 3251,
      "operator": 3252,
      "combined": 3253,
      "front": 3254,
      "psycho": 3255,
      "Gu": 3256,
      "cm": 3257,
      "ades": 3258,
      "sible": 3259,
      "get_": 3260,
      "birth": 3261,
      "English": 3262,
      "64": 3263,
      "Date": 3264,
      "novel": 3265,
      "gover": 3266,
      "ysis": 3267,
      "purch": 3268,
      "truth": 3269,
      "fish": 3270,
      "zo": 3271,
      "renow": 3272,
      "omin": 3273,
      "tire": 3274,
      "blend": 3275,
      "served": 3276,
      "focus": 3277,
      "parts": 3278,
      "dry": 3279,
      "planet": 3280,
      "statement": 3281,
      "fashion": 3282,
      "ral": 3283,
      "beth": 3284,
      "rigu": 3285,
      "exer": 3286,
      "artist": 3287,
      "intrigu": 3288,
      "evening": 3289,
      "sample": 3290,
      "simply": 3291,
      "messages": 3292,
      "Fe": 3293,
      "introdu": 3294,
      "hero": 3295,
      "strugg": 3296,
      "systems": 3297,
      "mystery": 3298,
      "variable": 3299,
      "Gener": 3300,
      "card": 3301,
      "fresh": 3302,
      "throw": 3303,
      "coin": 3304,
      "adap": 3305,
      "plat": 3306,
      "climb": 3307,
      "maintaining": 3308,
      "Println": 3309,
      "relev": 3310,
      "captiv": 3311,
      "factorial": 3312,
      "renowned": 3313,
      "French": 3314,
      "Wid": 3315,
      "bul": 3316,
      "essence": 3317,
      "lla": 3318,
      "species": 3319,
      "necessary": 3320,
      "icated": 3321,
      "config": 3322,
      "umin": 3323,
      "overall": 3324,
      "collection": 3325,
      "covered": 3326,
      "matrix": 3327,
      "casm": 3328,
      "telling": 3329,
      "Note": 3330,
      "sequence": 3331,
      "sarcasm": 3332,
      "waiting": 3333,
      "intellectual": 3334,
      "Image": 3335,
      "Tom": 3336,
      "ster": 3337,
      "claim": 3338,
      "evol": 3339,
      "kn": 3340,
      "scanner": 3341,
      "cock": 3342,
      "movie": 3343,
      "astic": 3344,
      "whole": 3345,
      "cards": 3346,
      "ENT": 3347,
      "storage": 3348,
      "ror": 3349,
      "orus": 3350,
      "oranges": 3351,
      "protect": 3352,
      "passed": 3353,
      "solutions": 3354,
      "requires": 3355,
      "JavaScript": 3356,
      "Employee": 3357,
      "Pres": 3358,
      "bs": 3359,
      "ties": 3360,
      "ister": 3361,
      "doors": 3362,
      "izations": 3363,
      "gives": 3364,
      "performance": 3365,
      "service": 3366,
      "machine": 3367,
      "Check": 3368,
      "done": 3369,
      "tick": 3370,
      "reh": 3371,
      "enjoy": 3372,
      "illed": 3373,
      "verage": 3374,
      "creativity": 3375,
      "dish": 3376,
      "Reg": 3377,
      "lightly": 3378,
      "hearts": 3379,
      "incredi": 3380,
      "decided": 3381,
      "Meet": 3382,
      "IT": 3383,
      "Console": 3384,
      "trains": 3385,
      "Box": 3386,
      "(&": 3387,
      "sions": 3388,
      "Start": 3389,
      "minute": 3390,
      "argument": 3391,
      "LECT": 3392,
      "building": 3393,
      "darkness": 3394,
      "women": 3395,
      "Handler": 3396,
      "instein": 3397,
      "batt": 3398,
      "mil": 3399,
      "vict": 3400,
      "ensure": 3401,
      "moving": 3402,
      "presents": 3403,
      "identify": 3404,
      "Question": 3405,
      "='": 3406,
      "ease": 3407,
      "gers": 3408,
      "iev": 3409,
      "sin": 3410,
      "stit": 3411,
      "deb": 3412,
      "exh": 3413,
      "ama": 3414,
      "spot": 3415,
      "Through": 3416,
      "syn": 3417,
      "subject": 3418,
      "attention": 3419,
      "Model": 3420,
      "successfully": 3421,
      "SELECT": 3422,
      "ening": 3423,
      "ably": 3424,
      "countless": 3425,
      "joke": 3426,
      "Price": 3427,
      "clean": 3428,
      "CTION": 3429,
      "David": 3430,
      "cosmic": 3431,
      "Last": 3432,
      "din": 3433,
      "spo": 3434,
      "tions": 3435,
      "ador": 3436,
      "apart": 3437,
      "shakes": 3438,
      "turns": 3439,
      "distribut": 3440,
      "handle": 3441,
      "structures": 3442,
      "casting": 3443,
      "objects": 3444,
      "`);": 3445,
      "bark": 3446,
      "sus": 3447,
      "surpr": 3448,
      "clients": 3449,
      "Great": 3450,
      "Update": 3451,
      "2x": 3452,
      "drop": 3453,
      "\",\"": 3454,
      "safe": 3455,
      "courage": 3456,
      "currentNode": 3457,
      "reduce": 3458,
      "paper": 3459,
      "enge": 3460,
      "acter": 3461,
      "stret": 3462,
      "document": 3463,
      "Emily": 3464,
      "lad": 3465,
      "enh": 3466,
      "tower": 3467,
      "printf": 3468,
      "surv": 3469,
      "drawn": 3470,
      "patient": 3471,
      "societ": 3472,
      "analysis": 3473,
      "electric": 3474,
      "Dele": 3475,
      "ome": 3476,
      "aly": 3477,
      "itor": 3478,
      "ands": 3479,
      "uries": 3480,
      "aby": 3481,
      "++)": 3482,
      "pieces": 3483,
      "crucial": 3484,
      "ina": 3485,
      "stain": 3486,
      "outh": 3487,
      "deci": 3488,
      "ride": 3489,
      "izes": 3490,
      "auto": 3491,
      "paralle": 3492,
      "starting": 3493,
      "habit": 3494,
      "Fo": 3495,
      "jazz": 3496,
      "leave": 3497,
      "cold": 3498,
      "ung": 3499,
      "curl": 3500,
      "valu": 3501,
      "education": 3502,
      "mut": 3503,
      "ners": 3504,
      "went": 3505,
      "ises": 3506,
      "immer": 3507,
      "cale": 3508,
      "tons": 3509,
      "slowly": 3510,
      "associated": 3511,
      "Delete": 3512,
      "wild": 3513,
      "acing": 3514,
      "death": 3515,
      "force": 3516,
      "progress": 3517,
      "filename": 3518,
      "relevant": 3519,
      "demon": 3520,
      "cha": 3521,
      "powerful": 3522,
      "AC": 3523,
      "cum": 3524,
      "guest": 3525,
      "report": 3526,
      "station": 3527,
      "stmt": 3528,
      "mechan": 3529,
      "compos": 3530,
      "brain": 3531,
      "trying": 3532,
      "integer": 3533,
      "mission": 3534,
      "CSV": 3535,
      "22": 3536,
      "Bal": 3537,
      "Blo": 3538,
      "King": 3539,
      "grace": 3540,
      "serves": 3541,
      "(),": 3542,
      "metic": 3543,
      "birds": 3544,
      "determination": 3545,
      "Count": 3546,
      "XT": 3547,
      "scr": 3548,
      "lex": 3549,
      "below": 3550,
      "ours": 3551,
      "strate": 3552,
      "lights": 3553,
      "breaking": 3554,
      "looked": 3555,
      "ogle": 3556,
      "offering": 3557,
      "algorithm": 3558,
      "revolution": 3559,
      "eager": 3560,
      "})": 3561,
      "stal": 3562,
      "imate": 3563,
      "engage": 3564,
      "voc": 3565,
      "Units": 3566,
      "regular": 3567,
      "Parser": 3568,
      "Current": 3569,
      "easy": 3570,
      "vas": 3571,
      "icks": 3572,
      "river": 3573,
      "getting": 3574,
      "observ": 3575,
      "workers": 3576,
      "\"))": 3577,
      "consist": 3578,
      "patients": 3579,
      "provides": 3580,
      "virt": 3581,
      "nullptr": 3582,
      "fleet": 3583,
      "whether": 3584,
      "App": 3585,
      "ison": 3586,
      "moments": 3587,
      "mathem": 3588,
      "party": 3589,
      "corner": 3590,
      "Ret": 3591,
      "Sort": 3592,
      "mur": 3593,
      "boy": 3594,
      "didn": 3595,
      "global": 3596,
      "fingers": 3597,
      "Know": 3598,
      "switch": 3599,
      "remark": 3600,
      "hear": 3601,
      "philo": 3602,
      "encounter": 3603,
      "merge": 3604,
      "continues": 3605,
      "gently": 3606,
      "tranqu": 3607,
      "astron": 3608,
      "3000": 3609,
      "Find": 3610,
      "chance": 3611,
      "moved": 3612,
      "comfort": 3613,
      "Story": 3614,
      "radius": 3615,
      "records": 3616,
      "Eliza": 3617,
      "resilience": 3618,
      "later": 3619,
      "labor": 3620,
      "np": 3621,
      "ns": 3622,
      "ora": 3623,
      "INST": 3624,
      "Under": 3625,
      "silent": 3626,
      "details": 3627,
      "perspective": 3628,
      "predict": 3629,
      "Dep": 3630,
      "Def": 3631,
      "fir": 3632,
      "job": 3633,
      "becomes": 3634,
      "exit": 3635,
      "Inst": 3636,
      "Where": 3637,
      "played": 3638,
      "INPUT": 3639,
      "versal": 3640,
      "increased": 3641,
      "RUCTION": 3642,
      "INSTRUCTION": 3643,
      "lic": 3644,
      "ox": 3645,
      "inks": 3646,
      "defective": 3647,
      "conduct": 3648,
      "finding": 3649,
      "forever": 3650,
      "perimeter": 3651,
      "starts": 3652,
      "Buffer": 3653,
      "rhythm": 3654,
      "Einstein": 3655,
      "Gree": 3656,
      "Main": 3657,
      "bon": 3658,
      "bly": 3659,
      "sli": 3660,
      "recogn": 3661,
      "eds": 3662,
      "tea": 3663,
      "built": 3664,
      "connects": 3665,
      "finally": 3666,
      "navigate": 3667,
      "180": 3668,
      ":\"": 3669,
      "CO": 3670,
      "bill": 3671,
      "ancial": 3672,
      "ards": 3673,
      "itable": 3674,
      "cred": 3675,
      "charm": 3676,
      "Chorus": 3677,
      "liter": 3678,
      "scene": 3679,
      "allowing": 3680,
      "holds": 3681,
      "behavior": 3682,
      "Bing": 3683,
      "kilo": 3684,
      "router": 3685,
      "ried": 3686,
      "mother": 3687,
      "Station": 3688,
      "charis": 3689,
      "purpose": 3690,
      "includes": 3691,
      "investment": 3692,
      "analyze": 3693,
      "sumption": 3694,
      "detailed": 3695,
      "Using": 3696,
      "cub": 3697,
      "pher": 3698,
      "plot": 3699,
      "enjo": 3700,
      "rian": 3701,
      "speech": 3702,
      "auth": 3703,
      "placed": 3704,
      "IOException": 3705,
      "sens": 3706,
      "heard": 3707,
      "chol": 3708,
      "une": 3709,
      "track": 3710,
      "outside": 3711,
      "plication": 3712,
      "soon": 3713,
      "img": 3714,
      "artic": 3715,
      "viol": 3716,
      "Thank": 3717,
      "despite": 3718,
      "player": 3719,
      "film": 3720,
      "months": 3721,
      "instead": 3722,
      "minimum": 3723,
      "Fat": 3724,
      "rup": 3725,
      "ators": 3726,
      "road": 3727,
      "rock": 3728,
      "myth": 3729,
      "compass": 3730,
      "whispers": 3731,
      "games": 3732,
      "ensions": 3733,
      "distant": 3734,
      "distinct": 3735,
      "members": 3736,
      "liters": 3737,
      "graphic": 3738,
      "sounds": 3739,
      "ratio": 3740,
      "II": 3741,
      "ancy": 3742,
      "recent": 3743,
      "concer": 3744,
      "areas": 3745,
      "drink": 3746,
      "friendly": 3747,
      "thinking": 3748,
      "developed": 3749,
      "landscape": 3750,
      "800": 3751,
      "Bec": 3752,
      "Egy": 3753,
      "Lad": 3754,
      "cam": 3755,
      "coll": 3756,
      "new_node": 3757,
      "phr": 3758,
      "encing": 3759,
      "crit": 3760,
      "tenance": 3761,
      "allowed": 3762,
      "beginning": 3763,
      "received": 3764,
      "inspired": 3765,
      "cv2": 3766,
      "jav": 3767,
      "ocean": 3768,
      "construction": 3769,
      "umines": 3770,
      "neigh": 3771,
      "wear": 3772,
      "essential": 3773,
      "herself": 3774,
      "challenge": 3775,
      "Meth": 3776,
      "simplif": 3777,
      "consumer": 3778,
      "<=": 3779,
      "Brit": 3780,
      "Sir": 3781,
      "ggs": 3782,
      "ised": 3783,
      "nest": 3784,
      "record": 3785,
      "negative": 3786,
      "Euro": 3787,
      "bes": 3788,
      "dial": 3789,
      "gith": 3790,
      "thri": 3791,
      "is_": 3792,
      "crew": 3793,
      "desc": 3794,
      "versity": 3795,
      "lessly": 3796,
      "media": 3797,
      "community": 3798,
      "sentiment": 3799,
      "float": 3800,
      "reflecting": 3801,
      "github": 3802,
      "fre": 3803,
      "atmo": 3804,
      "usually": 3805,
      "except": 3806,
      "peak": 3807,
      "asked": 3808,
      "Elizabeth": 3809,
      "Because": 3810,
      "Average": 3811,
      "Di": 3812,
      "construct": 3813,
      "shor": 3814,
      "brush": 3815,
      "classic": 3816,
      "numerous": 3817,
      "extraordinary": 3818,
      "phenom": 3819,
      "ody": 3820,
      "===": 3821,
      "sarcast": 3822,
      "thusi": 3823,
      "benefits": 3824,
      "govern": 3825,
      ".)": 3826,
      "CRU": 3827,
      "Nor": 3828,
      "Vict": 3829,
      "categ": 3830,
      "iency": 3831,
      "penc": 3832,
      "anything": 3833,
      "manner": 3834,
      "seeking": 3835,
      "404": 3836,
      "generated": 3837,
      "meaning": 3838,
      "concepts": 3839,
      "Europe": 3840,
      "War": 3841,
      "ael": 3842,
      "fix": 3843,
      "ker": 3844,
      "x_": 3845,
      "attract": 3846,
      "awn": 3847,
      "materials": 3848,
      "CRUD": 3849,
      "32": 3850,
      "CON": 3851,
      "fa": 3852,
      "hues": 3853,
      "to_": 3854,
      "unexpected": 3855,
      "indu": 3856,
      "assum": 3857,
      "formal": 3858,
      "Reason": 3859,
      ".\");": 3860,
      "address": 3861,
      "default": 3862,
      "answering": 3863,
      "sales": 3864,
      "surrounded": 3865,
      "golden": 3866,
      "Object": 3867,
      "narrative": 3868,
      "punct": 3869,
      "Gol": 3870,
      "itation": 3871,
      "loved": 3872,
      "reson": 3873,
      "ached": 3874,
      "newline": 3875,
      "wouldn": 3876,
      "ideas": 3877,
      "Provide": 3878,
      "Sun": 3879,
      "scent": 3880,
      "ugg": 3881,
      "activity": 3882,
      "odd": 3883,
      "smart": 3884,
      "United": 3885,
      "expenses": 3886,
      "Alex": 3887,
      "May": 3888,
      "Run": 3889,
      "`.": 3890,
      "ae": 3891,
      "danger": 3892,
      "demean": 3893,
      "option": 3894,
      "exists": 3895,
      "rectangle": 3896,
      "challenging": 3897,
      "charismatic": 3898,
      "demeanor": 3899,
      "Event": 3900,
      "US": 3901,
      "gal": 3902,
      "txt": 3903,
      "tape": 3904,
      "represents": 3905,
      "enthusi": 3906,
      "entry": 3907,
      "idate": 3908,
      "helps": 3909,
      "deeply": 3910,
      "advance": 3911,
      "merely": 3912,
      "crow": 3913,
      "ert": 3914,
      "lim": 3915,
      "strateg": 3916,
      "center": 3917,
      "centuries": 3918,
      "sett": 3919,
      "stands": 3920,
      "Show": 3921,
      "elif": 3922,
      "tax": 3923,
      "rome": 3924,
      "istics": 3925,
      "serving": 3926,
      "maze": 3927,
      "affect": 3928,
      "prev": 3929,
      "longer": 3930,
      "integers": 3931,
      "Additionally": 3932,
      "sarcastic": 3933,
      "AB": 3934,
      "Imp": 3935,
      "Map": 3936,
      "ethere": 3937,
      "iant": 3938,
      "je": 3939,
      "ingred": 3940,
      "compreh": 3941,
      "brings": 3942,
      "brought": 3943,
      "Socket": 3944,
      "addition": 3945,
      "silence": 3946,
      "split": 3947,
      "philosoph": 3948,
      "cause": 3949,
      "ien": 3950,
      "thre": 3951,
      "stress": 3952,
      "icy": 3953,
      "Ind": 3954,
      "Inter": 3955,
      "aff": 3956,
      "Nobel": 3957,
      "general": 3958,
      "located": 3959,
      "updated": 3960,
      "appreciate": 3961,
      "stro": 3962,
      "ouds": 3963,
      "shimmer": 3964,
      "humans": 3965,
      "properties": 3966,
      "Ab": 3967,
      "VAL": 3968,
      "brown": 3969,
      "thro": 3970,
      "ference": 3971,
      "increasing": 3972,
      "considering": 3973,
      "financial": 3974,
      "crypt": 3975,
      "TEXT": 3976,
      "--------": 3977,
      "cubic": 3978,
      "240": 3979,
      "IST": 3980,
      "TH": 3981,
      "tly": 3982,
      "ascript": 3983,
      "acc": 3984,
      "plants": 3985,
      "talk": 3986,
      "hood": 3987,
      "Express": 3988,
      "discussing": 3989,
      "mysterious": 3990,
      "Appe": 3991,
      "embrace": 3992,
      "javascript": 3993,
      "Victor": 3994,
      "GET": 3995,
      "fant": 3996,
      "jud": 3997,
      "theore": 3998,
      "asures": 3999,
      "aced": 4000,
      "ules": 4001,
      "goes": 4002,
      "humble": 4003,
      "combination": 4004,
      "France": 4005,
      "middle": 4006,
      "places": 4007,
      "ethereal": 4008,
      "rust": 4009,
      "ux": 4010,
      "ago": 4011,
      "creation": 4012,
      "complet": 4013,
      "letters": 4014,
      "Star": 4015,
      "arguments": 4016,
      "giving": 4017,
      "monthly": 4018,
      "Buffered": 4019,
      "\"`": 4020,
      "52": 4021,
      "Daily": 4022,
      "E2": 4023,
      "Max": 4024,
      "unknown": 4025,
      "pool": 4026,
      "Inte": 4027,
      "posed": 4028,
      "visual": 4029,
      "motiv": 4030,
      "warmth": 4031,
      "investig": 4032,
      "activities": 4033,
      "Appearance": 4034,
      "Ju": 4035,
      "hop": 4036,
      "alone": 4037,
      "iconic": 4038,
      "conv": 4039,
      "grav": 4040,
      "wasn": 4041,
      "rental": 4042,
      "apped": 4043,
      "written": 4044,
      "heavy": 4045,
      "Personality": 4046,
      "scenar": 4047,
      "incorpor": 4048,
      "cool": 4049,
      "aming": 4050,
      "plays": 4051,
      "Chri": 4052,
      "offers": 4053,
      "Description": 4054,
      "Result": 4055,
      "largest": 4056,
      "DuckGo": 4057,
      "DuckDuckGo": 4058,
      "Prize": 4059,
      "intriguing": 4060,
      "Golang": 4061,
      "66": 4062,
      "bing": 4063,
      "bow": 4064,
      "mas": 4065,
      "pace": 4066,
      "}`);": 4067,
      "imal": 4068,
      "strange": 4069,
      "mail": 4070,
      "distances": 4071,
      "Eng": 4072,
      "helping": 4073,
      "feelings": 4074,
      "regard": 4075,
      "sqlite": 4076,
      "occup": 4077,
      "significance": 4078,
      "cognitive": 4079,
      "Pe": 4080,
      "_client": 4081,
      "iar": 4082,
      "akin": 4083,
      "blur": 4084,
      "Analy": 4085,
      "memories": 4086,
      "Design": 4087,
      "Trans": 4088,
      "civilizations": 4089,
      "knack": 4090,
      "3x": 4091,
      ":?": 4092,
      "Age": 4093,
      "Scanner": 4094,
      "gas": 4095,
      "oh": 4096,
      "reli": 4097,
      "chain": 4098,
      "consumption": 4099,
      "strings": 4100,
      "grade": 4101,
      "curity": 4102,
      "compet": 4103,
      "erry": 4104,
      "current_node": 4105,
      "relent": 4106,
      "processes": 4107,
      "REST": 4108,
      "appear": 4109,
      "changed": 4110,
      "Handle": 4111,
      "architecture": 4112,
      "Days": 4113,
      "POST": 4114,
      "Size": 4115,
      "_token": 4116,
      "dx": 4117,
      "fi": 4118,
      "mi": 4119,
      "site": 4120,
      "instr": 4121,
      "ising": 4122,
      "iced": 4123,
      "resses": 4124,
      "artists": 4125,
      "aven": 4126,
      "cipl": 4127,
      "conscious": 4128,
      "Printf": 4129,
      "dimensions": 4130,
      "reveal": 4131,
      "principles": 4132,
      "cocktail": 4133,
      "tapestry": 4134,
      "Harry": 4135,
      "Year": 4136,
      "enn": 4137,
      "promis": 4138,
      "plant": 4139,
      "presence": 4140,
      "charge": 4141,
      "treat": 4142,
      "directly": 4143,
      "passionate": 4144,
      "satis": 4145,
      "VALU": 4146,
      "2D": 4147,
      "Ele": 4148,
      "Jap": 4149,
      "beat": 4150,
      "loqu": 4151,
      "resol": 4152,
      "tele": 4153,
      "okes": 4154,
      "solving": 4155,
      "Point": 4156,
      "dedicated": 4157,
      "inspire": 4158,
      "village": 4159,
      "TO": 4160,
      "eggs": 4161,
      "kes": 4162,
      "sand": 4163,
      "{}": 4164,
      "contr": 4165,
      "ulates": 4166,
      "embark": 4167,
      "spread": 4168,
      "desired": 4169,
      "idea": 4170,
      "fraction": 4171,
      "career": 4172,
      "computer": 4173,
      "professional": 4174,
      "Ve": 4175,
      "_image": 4176,
      "ran": 4177,
      "zon": 4178,
      "states": 4179,
      "rot": 4180,
      "sustain": 4181,
      "cles": 4182,
      "MySQL": 4183,
      "blood": 4184,
      "access_token": 4185,
      "sells": 4186,
      "Usage": 4187,
      "brief": 4188,
      "adorned": 4189,
      "mathemat": 4190,
      "enjoys": 4191,
      "Japan": 4192,
      "Mus": 4193,
      "Su": 4194,
      "Task": 4195,
      "ky": 4196,
      "slightly": 4197,
      "dead": 4198,
      "indrome": 4199,
      "grad": 4200,
      "creates": 4201,
      "creature": 4202,
      "estab": 4203,
      "encies": 4204,
      "condition": 4205,
      "related": 4206,
      "Myers": 4207,
      "advice": 4208,
      "Leon": 4209,
      "machines": 4210,
      "reminder": 4211,
      "conclusion": 4212,
      "Gab": 4213,
      "Mark": 4214,
      "nut": 4215,
      "stamp": 4216,
      "according": 4217,
      "deck": 4218,
      "ilder": 4219,
      "forth": 4220,
      "ctors": 4221,
      "logist": 4222,
      "maintenance": 4223,
      "standard": 4224,
      "iously": 4225,
      "Explain": 4226,
      "solute": 4227,
      "iostream": 4228,
      "ternal": 4229,
      "anticip": 4230,
      "basketball": 4231,
      "Brig": 4232,
      "ML": 4233,
      "Rom": 4234,
      "]);": 4235,
      "law": 4236,
      "s3": 4237,
      "ining": 4238,
      "attemp": 4239,
      "arm": 4240,
      "asc": 4241,
      "ids": 4242,
      "exception": 4243,
      "athy": 4244,
      "background": 4245,
      "equations": 4246,
      "groups": 4247,
      "situation": 4248,
      "innovative": 4249,
      "harmony": 4250,
      "retriev": 4251,
      "issues": 4252,
      "Briggs": 4253,
      "!)": 4254,
      "Miss": 4255,
      "Que": 4256,
      "Ros": 4257,
      "Reven": 4258,
      "bad": 4259,
      "lier": 4260,
      "clude": 4261,
      "comfor": 4262,
      "formed": 4263,
      "file_path": 4264,
      "entials": 4265,
      "humanity": 4266,
      "More": 4267,
      "Fatal": 4268,
      "Min": 4269,
      "Orig": 4270,
      "hit": 4271,
      "waver": 4272,
      "ica": 4273,
      "riel": 4274,
      "resources": 4275,
      "endless": 4276,
      "Info": 4277,
      "Ann": 4278,
      "ensuring": 4279,
      "puzz": 4280,
      "publication": 4281,
      "difference": 4282,
      "existing": 4283,
      "Space": 4284,
      "Oper": 4285,
      "band": 4286,
      "wers": 4287,
      "thread": 4288,
      "throws": 4289,
      "ouble": 4290,
      "alive": 4291,
      "lied": 4292,
      "adjust": 4293,
      "trust": 4294,
      "bool": 4295,
      "actual": 4296,
      "canvas": 4297,
      "asts": 4298,
      "whose": 4299,
      "chema": 4300,
      "learned": 4301,
      "Quant": 4302,
      "advanced": 4303,
      "Verse": 4304,
      "uminescent": 4305,
      "Gabriel": 4306,
      "CN": 4307,
      "Lily": 4308,
      "waves": 4309,
      "levels": 4310,
      "peare": 4311,
      "discipl": 4312,
      "logic": 4313,
      "akespeare": 4314,
      "styles": 4315,
      "raise": 4316,
      "windows": 4317,
      "restaur": 4318,
      "broad": 4319,
      "Shakespeare": 4320,
      "legend": 4321,
      "Found": 4322,
      "Length": 4323,
      "Mid": 4324,
      "_date": 4325,
      "gar": 4326,
      "taste": 4327,
      "online": 4328,
      "atives": 4329,
      "cher": 4330,
      "clouds": 4331,
      "studies": 4332,
      "calculates": 4333,
      "ificial": 4334,
      "marize": 4335,
      "training": 4336,
      "begins": 4337,
      "spectac": 4338,
      "roller": 4339,
      "believed": 4340,
      "opportunity": 4341,
      "transportation": 4342,
      "British": 4343,
      "CNN": 4344,
      "?,": 4345,
      "schol": 4346,
      "til": 4347,
      "cribe": 4348,
      "added": 4349,
      "counts": 4350,
      "studying": 4351,
      "visited": 4352,
      "leader": 4353,
      "movement": 4354,
      "considered": 4355,
      "softly": 4356,
      "bird": 4357,
      "boundaries": 4358,
      "Captain": 4359,
      "kilometers": 4360,
      "/:": 4361,
      "Av": 4362,
      "IS": 4363,
      "recur": 4364,
      "answers": 4365,
      "aware": 4366,
      "equip": 4367,
      "seek": 4368,
      "America": 4369,
      "replacement": 4370,
      "Revenue": 4371,
      "eas": 4372,
      "lack": 4373,
      "rave": 4374,
      "thy": 4375,
      "newNode": 4376,
      "INSER": 4377,
      "shel": 4378,
      "evidence2": 4379,
      "doub": 4380,
      "cases": 4381,
      "driven": 4382,
      "origin": 4383,
      "continued": 4384,
      "enchanting": 4385,
      "delightful": 4386,
      "aspects": 4387,
      "virtual": 4388,
      "atmosphere": 4389,
      "INSERT": 4390,
      "mn": 4391,
      "nur": 4392,
      "wish": 4393,
      "ote": 4394,
      "six": 4395,
      "button": 4396,
      "osen": 4397,
      "calculator": 4398,
      "traveling": 4399,
      "cially": 4400,
      "Green": 4401,
      "INTO": 4402,
      "category": 4403,
      "67": 4404,
      "Lou": 4405,
      "tour": 4406,
      "yes": 4407,
      "shif": 4408,
      "States": 4409,
      "currently": 4410,
      "prior": 4411,
      "evidence3": 4412,
      "planning": 4413,
      "medi": 4414,
      "witness": 4415,
      "animal": 4416,
      "Class": 4417,
      "chaos": 4418,
      "astronom": 4419,
      "Afr": 4420,
      "rc": 4421,
      "tank": 4422,
      "vow": 4423,
      "stim": 4424,
      "almost": 4425,
      "convert": 4426,
      "exam": 4427,
      "Header": 4428,
      "faced": 4429,
      "Setting": 4430,
      "girl": 4431,
      "demonstr": 4432,
      "Balance": 4433,
      "industry": 4434,
      "Twit": 4435,
      "dancing": 4436,
      "fail": 4437,
      "gle": 4438,
      "agree": 4439,
      "usual": 4440,
      "dynam": 4441,
      "handshakes": 4442,
      "azing": 4443,
      "depths": 4444,
      "changing": 4445,
      "Good": 4446,
      "Google": 4447,
      "political": 4448,
      "pencils": 4449,
      "VALUES": 4450,
      "Mongo": 4451,
      "awe": 4452,
      "ders": 4453,
      "hats": 4454,
      "espe": 4455,
      "defer": 4456,
      "kept": 4457,
      "Tool": 4458,
      "hosp": 4459,
      "skin": 4460,
      "operates": 4461,
      "Load": 4462,
      "window": 4463,
      "rectang": 4464,
      "significantly": 4465,
      "exploring": 4466,
      "involved": 4467,
      "streets": 4468,
      "ResponseWriter": 4469,
      "fruits": 4470,
      "frequency": 4471,
      "Italian": 4472,
      "exercise": 4473,
      "punctuation": 4474,
      "assume": 4475,
      "deal": 4476,
      "chosen": 4477,
      "actually": 4478,
      "Today": 4479,
      "emphas": 4480,
      "Prob": 4481,
      "WriteLine": 4482,
      "athetic": 4483,
      "linked": 4484,
      "www": 4485,
      "exhib": 4486,
      "especially": 4487,
      "pict": 4488,
      "avo": 4489,
      "curious": 4490,
      "prevent": 4491,
      "flag": 4492,
      "network": 4493,
      "farmer": 4494,
      "LETE": 4495,
      "URLs": 4496,
      "discussions": 4497,
      "Introdu": 4498,
      "snail": 4499,
      "DELETE": 4500,
      "possibilities": 4501,
      "Ke": 4502,
      "bi": 4503,
      "eloqu": 4504,
      "fold": 4505,
      "iable": 4506,
      "yield": 4507,
      "arms": 4508,
      "chair": 4509,
      "lived": 4510,
      "shop": 4511,
      "spaces": 4512,
      "impos": 4513,
      "renzo": 4514,
      "yell": 4515,
      "Lorenzo": 4516,
      "release": 4517,
      "environmental": 4518,
      "Func": 4519,
      "Connect": 4520,
      "pursuit": 4521,
      "separated": 4522,
      "describe": 4523,
      "Lon": 4524,
      "Lit": 4525,
      "Make": 4526,
      "ares": 4527,
      "dden": 4528,
      "hon": 4529,
      "umb": 4530,
      "goal": 4531,
      "iods": 4532,
      "primary": 4533,
      "guard": 4534,
      "follows": 4535,
      "treasure": 4536,
      "ogue": 4537,
      "longest": 4538,
      "adapt": 4539,
      "Cor": 4540,
      "Har": 4541,
      "Mars": 4542,
      "Pot": 4543,
      "bum": 4544,
      "bak": 4545,
      "fly": 4546,
      "fiction": 4547,
      "hic": 4548,
      "theories": 4549,
      "endent": 4550,
      "dust": 4551,
      "magn": 4552,
      "appropri": 4553,
      "diverse": 4554,
      "says": 4555,
      "depth": 4556,
      "boxes": 4557,
      "wanted": 4558,
      "successful": 4559,
      "Student": 4560,
      "bustling": 4561,
      "neighbor": 4562,
      "BufferedReader": 4563,
      "Scr": 4564,
      "vies": 4565,
      "acci": 4566,
      "iling": 4567,
      "lia": 4568,
      "artificial": 4569,
      "extensive": 4570,
      "international": 4571,
      "triangle": 4572,
      "chocol": 4573,
      "useum": 4574,
      "couldn": 4575,
      "multiplication": 4576,
      "HTML": 4577,
      "innovation": 4578,
      "Extractor": 4579,
      "quickly": 4580,
      "captivating": 4581,
      "Greek": 4582,
      "Ama": 4583,
      "Custom": 4584,
      "False": 4585,
      "Gal": 4586,
      "Mic": 4587,
      "Upon": 4588,
      "caught": 4589,
      "ham": 4590,
      "jokes": 4591,
      "kitch": 4592,
      "thous": 4593,
      "onacci": 4594,
      "enig": 4595,
      "idity": 4596,
      "loves": 4597,
      "ots": 4598,
      "soc": 4599,
      "extre": 4600,
      "paths": 4601,
      "temperature": 4602,
      "division": 4603,
      "labe": 4604,
      "ibonacci": 4605,
      "accessible": 4606,
      "familiar": 4607,
      "susp": 4608,
      "shortest": 4609,
      "AY": 4610,
      "High": 4611,
      "Sm": 4612,
      "TP": 4613,
      "Tell": 4614,
      "dawn": 4615,
      "info": 4616,
      "edom": 4617,
      "talent": 4618,
      "apply": 4619,
      "greater": 4620,
      "highly": 4621,
      "Students": 4622,
      "cooking": 4623,
      "bridge": 4624,
      "ticket": 4625,
      "galax": 4626,
      "Born": 4627,
      "Med": 4628,
      "Mich": 4629,
      "Table": 4630,
      "dire": 4631,
      "fine": 4632,
      "nic": 4633,
      "knowing": 4634,
      "timestamp": 4635,
      "passage": 4636,
      "tribut": 4637,
      "empathetic": 4638,
      "probabilities": 4639,
      "generates": 4640,
      "accounts": 4641,
      "meeting": 4642,
      "relentless": 4643,
      "Body": 4644,
      "Day": 4645,
      "Hist": 4646,
      "Sar": 4647,
      "bst": 4648,
      "gri": 4649,
      "mise": 4650,
      "mongo": 4651,
      "ander": 4652,
      "notable": 4653,
      "justice": 4654,
      "marks": 4655,
      "similar": 4656,
      "Profit": 4657,
      "valuable": 4658,
      "wavering": 4659,
      "Probability": 4660,
      "23": 4661,
      "Lord": 4662,
      "Rus": 4663,
      "cere": 4664,
      "ffic": 4665,
      "src": 4666,
      "vice": 4667,
      "votes": 4668,
      "heat": 4669,
      "hest": 4670,
      "coach": 4671,
      "ourselves": 4672,
      "periods": 4673,
      "creative": 4674,
      "new_": 4675,
      "Button": 4676,
      "remained": 4677,
      "tells": 4678,
      "stretch": 4679,
      "Cho": 4680,
      "Even": 4681,
      "Ge": 4682,
      "Ham": 4683,
      "Mat": 4684,
      "ahead": 4685,
      "pup": 4686,
      "rin": 4687,
      "zes": 4688,
      "orary": 4689,
      "security": 4690,
      "unwavering": 4691,
      "atest": 4692,
      "sudden": 4693,
      "Include": 4694,
      "Cons": 4695,
      "capital": 4696,
      "Play": 4697,
      "heads": 4698,
      "pping": 4699,
      "365": 4700,
      "pairs": 4701,
      "experiment": 4702,
      "straight": 4703,
      "welcome": 4704,
      "societal": 4705,
      "27": 4706,
      "carry": 4707,
      "raw": 4708,
      "coder": 4709,
      "Inser": 4710,
      "anyone": 4711,
      "knows": 4712,
      "apping": 4713,
      "players": 4714,
      "ensity": 4715,
      "writer": 4716,
      "Rome": 4717,
      "ById": 4718,
      "entertain": 4719,
      "efficiency": 4720,
      "pounds": 4721,
      "branches": 4722,
      "Blob": 4723,
      "Twitter": 4724,
      "Amazon": 4725,
      "Mag": 4726,
      "MAR": 4727,
      "Wel": 4728,
      "bree": 4729,
      "gave": 4730,
      "pi": 4731,
      "thes": 4732,
      "pers": 4733,
      "keys": 4734,
      "Incre": 4735,
      "talking": 4736,
      "preser": 4737,
      "reader": 4738,
      "ishing": 4739,
      "buy": 4740,
      "video": 4741,
      "8080": 4742,
      "Art": 4743,
      "bloom": 4744,
      "typically": 4745,
      "yellow": 4746,
      "appropriate": 4747,
      "99": 4748,
      "Deter": 4749,
      "Fact": 4750,
      "Tech": 4751,
      "measure": 4752,
      "chill": 4753,
      "covers": 4754,
      "coding": 4755,
      "liar": 4756,
      "keen": 4757,
      "delicate": 4758,
      "metaph": 4759,
      "routes": 4760,
      "marketing": 4761,
      "shaped": 4762,
      "fruit": 4763,
      "freedom": 4764,
      ":\",": 4765,
      "Email": 4766,
      "IF": 4767,
      "Li": 4768,
      "Mary": 4769,
      "Word": 4770,
      "inner": 4771,
      "conds": 4772,
      "poem": 4773,
      "president": 4774,
      "pressure": 4775,
      "capable": 4776,
      "strategy": 4777,
      "firm": 4778,
      "dialogue": 4779,
      "Engine": 4780,
      ":?]": 4781,
      "Annual": 4782,
      "kitchen": 4783,
      "Harri": 4784,
      "Rich": 4785,
      "UP": 4786,
      "Willi": 4787,
      "gone": 4788,
      "pir": 4789,
      "alter": 4790,
      "truck": 4791,
      "mysql": 4792,
      "brave": 4793,
      "twink": 4794,
      "Chat": 4795,
      "processing": 4796,
      "randomly": 4797,
      "effects": 4798,
      "spring": 4799,
      "inspiring": 4800,
      "remarkable": 4801,
      "HandleFunc": 4802,
      "Sarah": 4803,
      "Harriet": 4804,
      "Sil": 4805,
      "Simp": 4806,
      "_secret": 4807,
      "aign": 4808,
      "gro": 4809,
      "wing": 4810,
      "deposit": 4811,
      "tric": 4812,
      "perce": 4813,
      "immedi": 4814,
      "feat": 4815,
      "illumin": 4816,
      "aude": 4817,
      "archae": 4818,
      "carries": 4819,
      "greatest": 4820,
      "mux": 4821,
      "closer": 4822,
      "minds": 4823,
      "sunlight": 4824,
      "thoughtful": 4825,
      "occas": 4826,
      "storytelling": 4827,
      "ibility": 4828,
      "Order": 4829,
      "influenced": 4830,
      "Once": 4831,
      "Claude": 4832,
      "commitment": 4833,
      "efficient": 4834,
      "parents": 4835,
      "prepare": 4836,
      "Lastly": 4837,
      "meticul": 4838,
      "London": 4839,
      "AD": 4840,
      "Whis": 4841,
      "mass": 4842,
      "vivid": 4843,
      "anx": 4844,
      "reverse": 4845,
      "options": 4846,
      "input_": 4847,
      "internet": 4848,
      "arger": 4849,
      "friendship": 4850,
      "higher": 4851,
      "flower": 4852,
      "Robert": 4853,
      "storm": 4854,
      "Carol": 4855,
      "platform": 4856,
      "ingredients": 4857,
      "rectangular": 4858,
      "extreme": 4859,
      "incent": 4860,
      "ites": 4861,
      "ighest": 4862,
      "charming": 4863,
      "Produ": 4864,
      "grammar": 4865,
      "attack": 4866,
      "saying": 4867,
      "complexity": 4868,
      "decimal": 4869,
      "sentences": 4870,
      "checks": 4871,
      "screen": 4872,
      "Welcome": 4873,
      "Ber": 4874,
      "Marg": 4875,
      "eco": 4876,
      "hall": 4877,
      "infin": 4878,
      "staff": 4879,
      "unrave": 4880,
      "withdraw": 4881,
      "quir": 4882,
      "prices": 4883,
      "cloud": 4884,
      "oph": 4885,
      "calm": 4886,
      "prints": 4887,
      "guess": 4888,
      "followed": 4889,
      "references": 4890,
      "watching": 4891,
      "documents": 4892,
      "analytical": 4893,
      "HTTP": 4894,
      "relationship": 4895,
      "37": 4896,
      "Tur": 4897,
      "mong": 4898,
      "atom": 4899,
      "section": 4900,
      "veget": 4901,
      "idance": 4902,
      "movies": 4903,
      "spend": 4904,
      "twist": 4905,
      "holo": 4906,
      "grew": 4907,
      "greSQL": 4908,
      "summer": 4909,
      "spirits": 4910,
      "websites": 4911,
      "flights": 4912,
      "Manager": 4913,
      "PostgreSQL": 4914,
      "Width": 4915,
      "stitute": 4916,
      "soccer": 4917,
      "!(": 4918,
      "''": 4919,
      "55": 4920,
      "Oli": 4921,
      "Tim": 4922,
      "dam": 4923,
      "tor": 4924,
      "chick": 4925,
      "rial": 4926,
      "lighting": 4927,
      "empathy": 4928,
      "create_": 4929,
      "feels": 4930,
      "physic": 4931,
      "potentially": 4932,
      "ampaign": 4933,
      "multiplying": 4934,
      "interesting": 4935,
      "implements": 4936,
      "counter": 4937,
      "visitors": 4938,
      "contributions": 4939,
      "psychology": 4940,
      "towering": 4941,
      "guests": 4942,
      "government": 4943,
      "EM": 4944,
      "IM": 4945,
      "S3": 4946,
      "hun": 4947,
      "conver": 4948,
      "notice": 4949,
      "brilli": 4950,
      "arrying": 4951,
      "calculated": 4952,
      "capes": 4953,
      "guidance": 4954,
      "lamp": 4955,
      "appears": 4956,
      "listening": 4957,
      "risk": 4958,
      "Blue": 4959,
      "CREATE": 4960,
      "battle": 4961,
      "breeze": 4962,
      "Sim": 4963,
      "cerr": 4964,
      "fli": 4965,
      "pti": 4966,
      "quer": 4967,
      "ester": 4968,
      "anging": 4969,
      "rented": 4970,
      "worked": 4971,
      "orders": 4972,
      "cultures": 4973,
      "latest": 4974,
      "palindrome": 4975,
      "civilization": 4976,
      "expert": 4977,
      "mountains": 4978,
      "saved": 4979,
      "crowd": 4980,
      "Pa": 4981,
      "Pho": 4982,
      "Sto": 4983,
      "pes": 4984,
      "pets": 4985,
      "theme": 4986,
      "belong": 4987,
      "abet": 4988,
      "promp": 4989,
      "itement": 4990,
      "news": 4991,
      "fund": 4992,
      "jsonify": 4993,
      "painted": 4994,
      "Paris": 4995,
      "issance": 4996,
      "insightful": 4997,
      "nearby": 4998,
      "horiz": 4999,
      "management": 5000,
      "contrast": 5001,
      "Bot": 5002,
      "God": 5003,
      "Tower": 5004,
      "_count": 5005,
      "lan": 5006,
      "va": 5007,
      "wave": 5008,
      "{\"": 5009,
      "rep": 5010,
      "leap": 5011,
      "vey": 5012,
      "usive": 5013,
      "resource": 5014,
      "trick": 5015,
      "endpoint": 5016,
      "sometimes": 5017,
      "Form": 5018,
      "musical": 5019,
      "label": 5020,
      "figures": 5021,
      "SQLException": 5022,
      "reference": 5023,
      "receive": 5024,
      "mirror": 5025,
      "Consider": 5026,
      "SH": 5027,
      "_KEY": 5028,
      "crop": 5029,
      "ration": 5030,
      "thick": 5031,
      "quar": 5032,
      "shake": 5033,
      "fears": 5034,
      "youth": 5035,
      "turning": 5036,
      "arrange": 5037,
      "topics": 5038,
      "representing": 5039,
      "street": 5040,
      "completely": 5041,
      "distribution": 5042,
      "npm": 5043,
      "Middle": 5044,
      "Ano": 5045,
      "IC": 5046,
      "Mem": 5047,
      "sought": 5048,
      "wine": 5049,
      "ione": 5050,
      "forces": 5051,
      "core": 5052,
      "quis": 5053,
      "artistic": 5054,
      "sian": 5055,
      "endpoints": 5056,
      "doing": 5057,
      "ultane": 5058,
      "affe": 5059,
      "Weather": 5060,
      "flick": 5061,
      "255": 5062,
      "generations": 5063,
      "Look": 5064,
      "ominator": 5065,
      "Element": 5066,
      "mongoose": 5067,
      "Another": 5068,
      ".*": 5069,
      "Like": 5070,
      "UN": 5071,
      "Ur": 5072,
      "Vol": 5073,
      "marg": 5074,
      "aters": 5075,
      "etc": 5076,
      "etched": 5077,
      "Thus": 5078,
      "Stor": 5079,
      "handling": 5080,
      "Describe": 5081,
      "architectural": 5082,
      "excitement": 5083,
      "Brian": 5084,
      "Mount": 5085,
      "PRI": 5086,
      "[#": 5087,
      "carrying": 5088,
      "highest": 5089,
      "larger": 5090,
      "mate": 5091,
      "tit": 5092,
      "ald": 5093,
      "itary": 5094,
      "accomp": 5095,
      "authen": 5096,
      "afety": 5097,
      "evidence4": 5098,
      "skies": 5099,
      "expan": 5100,
      "region": 5101,
      "reaching": 5102,
      "posts": 5103,
      "sentence": 5104,
      "appearance": 5105,
      "candies": 5106,
      "columns": 5107,
      "CHAR": 5108,
      "Night": 5109,
      "Pass": 5110,
      "ju": 5111,
      "pow": 5112,
      "pure": 5113,
      "rap": 5114,
      "umph": 5115,
      "zing": 5116,
      "roy": 5117,
      "coins": 5118,
      "utter": 5119,
      "unseen": 5120,
      "amber": 5121,
      "soo": 5122,
      "hash": 5123,
      "disease": 5124,
      "marble": 5125,
      "relax": 5126,
      "offic": 5127,
      "Begin": 5128,
      "falls": 5129,
      "whispered": 5130,
      "surrounding": 5131,
      "emerged": 5132,
      "zero": 5133,
      "melody": 5134,
      "strategies": 5135,
      "William": 5136,
      "2000": 5137,
      "Det": 5138,
      "DATE": 5139,
      "El": 5140,
      "Mor": 5141,
      "Sw": 5142,
      "vin": 5143,
      "exce": 5144,
      "render": 5145,
      "memor": 5146,
      "casc": 5147,
      "enhance": 5148,
      "tranquility": 5149,
      "Simplif": 5150,
      "26": 5151,
      "House": 5152,
      "Rena": 5153,
      "Tes": 5154,
      "dot": 5155,
      "mort": 5156,
      "oke": 5157,
      "piv": 5158,
      "pip": 5159,
      "rare": 5160,
      "scale": 5161,
      "tren": 5162,
      "thou": 5163,
      "ican": 5164,
      "seconds": 5165,
      "etic": 5166,
      "unning": 5167,
      "plans": 5168,
      "aircraft": 5169,
      "commend": 5170,
      "visible": 5171,
      "marked": 5172,
      "reached": 5173,
      "adventures": 5174,
      "crystal": 5175,
      "deliver": 5176,
      "device": 5177,
      "enchanted": 5178,
      "inspiration": 5179,
      "contempl": 5180,
      "ugging": 5181,
      "Queen": 5182,
      "Renaissance": 5183,
      "Dir": 5184,
      "Isa": 5185,
      "bank": 5186,
      "dol": 5187,
      "fate": 5188,
      "album": 5189,
      "seats": 5190,
      "moves": 5191,
      "ansion": 5192,
      "returned": 5193,
      "flavor": 5194,
      "useful": 5195,
      "solace": 5196,
      "DB_": 5197,
      "riddle": 5198,
      "add_argument": 5199,
      "assuming": 5200,
      "ABLE": 5201,
      "Tesla": 5202,
      ">=": 5203,
      "dut": 5204,
      "fab": 5205,
      "stir": 5206,
      "vehic": 5207,
      "cot": 5208,
      "umble": 5209,
      "wealth": 5210,
      "older": 5211,
      "mention": 5212,
      "strain": 5213,
      "desire": 5214,
      "stock": 5215,
      "reflection": 5216,
      "silver": 5217,
      "cutting": 5218,
      "respective": 5219,
      "Indeed": 5220,
      "Compose": 5221,
      "engineering": 5222,
      "relationships": 5223,
      "deleting": 5224,
      "President": 5225,
      "sqlite3": 5226,
      "/{": 5227,
      "160": 5228,
      "3D": 5229,
      "rical": 5230,
      "uary": 5231,
      "arily": 5232,
      "isol": 5233,
      "acon": 5234,
      "adds": 5235,
      "promise": 5236,
      "(\"\\": 5237,
      "themes": 5238,
      "dedication": 5239,
      "initially": 5240,
      "shadow": 5241,
      "circle": 5242,
      "practice": 5243,
      "Linked": 5244,
      "anticipation": 5245,
      "29": 5246,
      "Double": 5247,
      "tiny": 5248,
      "threads": 5249,
      "decre": 5250,
      "etime": 5251,
      "active": 5252,
      "elastic": 5253,
      "thank": 5254,
      "versed": 5255,
      "missing": 5256,
      "db_": 5257,
      "finish": 5258,
      "appeared": 5259,
      "views": 5260,
      "echoing": 5261,
      "variables": 5262,
      "Author": 5263,
      "families": 5264,
      "prepared": 5265,
      "scenario": 5266,
      "TABLE": 5267,
      "sched": 5268,
      "yo": 5269,
      "acres": 5270,
      "acles": 5271,
      "otic": 5272,
      "shift": 5273,
      "speaking": 5274,
      "however": 5275,
      "classes": 5276,
      "flat": 5277,
      "Exec": 5278,
      "nights": 5279,
      "divided": 5280,
      "Arch": 5281,
      "Service": 5282,
      "gotten": 5283,
      "causing": 5284,
      "struggle": 5285,
      "abyrin": 5286,
      "shimmering": 5287,
      "Victorian": 5288,
      "restaurant": 5289,
      "hospital": 5290,
      "Fur": 5291,
      "Hash": 5292,
      "Lear": 5293,
      "lind": 5294,
      "mber": 5295,
      "race": 5296,
      "ret": 5297,
      "ilight": 5298,
      "ette": 5299,
      "bell": 5300,
      "iden": 5301,
      "mood": 5302,
      "feed": 5303,
      "cular": 5304,
      "greet": 5305,
      "Example": 5306,
      "buffer": 5307,
      "realized": 5308,
      "expand": 5309,
      "mystical": 5310,
      "drive": 5311,
      "services": 5312,
      "pped": 5313,
      "Generate": 5314,
      "incredibly": 5315,
      "advancements": 5316,
      "MARY": 5317,
      "Direct": 5318,
      "bility": 5319,
      "iety": 5320,
      "safety": 5321,
      "infect": 5322,
      "stones": 5323,
      "arian": 5324,
      "apter": 5325,
      "antly": 5326,
      "goals": 5327,
      "medium": 5328,
      "connections": 5329,
      "topic": 5330,
      "transc": 5331,
      "supp": 5332,
      "problems": 5333,
      "languages": 5334,
      "++;": 5335,
      "rule": 5336,
      "passenger": 5337,
      "England": 5338,
      "Flask": 5339,
      "Barber": 5340,
      "Install": 5341,
      "Methods": 5342,
      "abyrinth": 5343,
      "(-": 5344,
      "96": 5345,
      "Save": 5346,
      "hur": 5347,
      "pto": 5348,
      "alien": 5349,
      "meal": 5350,
      "pecu": 5351,
      "ounds": 5352,
      "spin": 5353,
      "classical": 5354,
      "bodyParser": 5355,
      "denominator": 5356,
      "performs": 5357,
      "Frank": 5358,
      "savings": 5359,
      "Determine": 5360,
      "ultaneously": 5361,
      "peculiar": 5362,
      ".]": 5363,
      "Ame": 5364,
      "During": 5365,
      "IG": 5366,
      "Right": 5367,
      "VAR": 5368,
      "die": 5369,
      "eli": 5370,
      "gli": 5371,
      "income": 5372,
      "ana": 5373,
      "icing": 5374,
      "aden": 5375,
      "loop": 5376,
      "exchange": 5377,
      "tection": 5378,
      "suit": 5379,
      "parad": 5380,
      "corresponding": 5381,
      "obst": 5382,
      "China": 5383,
      "grams": 5384,
      "cylind": 5385,
      "healthy": 5386,
      "glowing": 5387,
      "confidence": 5388,
      "gallon": 5389,
      "fellow": 5390,
      "purchase": 5391,
      "Moreover": 5392,
      "Insert": 5393,
      "Amelia": 5394,
      "Ash": 5395,
      "Dear": 5396,
      "Gra": 5397,
      "Vincent": 5398,
      "_to_": 5399,
      "tang": 5400,
      "ws": 5401,
      "acade": 5402,
      "sec": 5403,
      "plug": 5404,
      "iments": 5405,
      "boo": 5406,
      "fost": 5407,
      "Thread": 5408,
      "prime": 5409,
      "evidence5": 5410,
      "office": 5411,
      "characterized": 5412,
      "smooth": 5413,
      "opportunities": 5414,
      "artifacts": 5415,
      "incredible": 5416,
      "credentials": 5417,
      "compassion": 5418,
      "horizon": 5419,
      "Cele": 5420,
      "Ger": 5421,
      "VER": 5422,
      "ai": 5423,
      "bacter": 5424,
      "labyrinth": 5425,
      "snow": 5426,
      "alph": 5427,
      "tom": 5428,
      "lips": 5429,
      "urban": 5430,
      "bear": 5431,
      "abs": 5432,
      "shows": 5433,
      "avors": 5434,
      "omas": 5435,
      "commo": 5436,
      "serene": 5437,
      "fulness": 5438,
      "worldwide": 5439,
      "stores": 5440,
      "Beaut": 5441,
      "wonders": 5442,
      "happened": 5443,
      "effective": 5444,
      "Evidence1": 5445,
      "ESS": 5446,
      "queue": 5447,
      "majest": 5448,
      "models": 5449,
      "integral": 5450,
      "Regular": 5451,
      "camera": 5452,
      "equipment": 5453,
      "impossible": 5454,
      "\"{": 5455,
      "Aust": 5456,
      "Sc": 5457,
      "cation": 5458,
      "dar": 5459,
      "none": 5460,
      "uations": 5461,
      "relig": 5462,
      "newfound": 5463,
      "aft": 5464,
      "Together": 5465,
      "Both": 5466,
      "musicians": 5467,
      "echoes": 5468,
      "invention": 5469,
      "interactions": 5470,
      "fashioned": 5471,
      "decide": 5472,
      "fficient": 5473,
      "margin": 5474,
      "%,": 5475,
      "South": 5476,
      "orange": 5477,
      "decor": 5478,
      "lib": 5479,
      "explan": 5480,
      "socks": 5481,
      "illa": 5482,
      "gray": 5483,
      "contact": 5484,
      "math": 5485,
      "culinary": 5486,
      "filePath": 5487,
      "responsi": 5488,
      "ressed": 5489,
      "diet": 5490,
      "technological": 5491,
      "amples": 5492,
      "max_": 5493,
      "Black": 5494,
      "Depart": 5495,
      "nestled": 5496,
      "Juli": 5497,
      "MongoDB": 5498,
      "VARCHAR": 5499,
      ")(": 5500,
      ")/": 5501,
      "Best": 5502,
      "iver": 5503,
      "piz": 5504,
      "sac": 5505,
      "taught": 5506,
      "inn": 5507,
      "seat": 5508,
      "etch": 5509,
      "adversity": 5510,
      "rif": 5511,
      "nel": 5512,
      "sia": 5513,
      "doctors": 5514,
      "logies": 5515,
      "interface": 5516,
      "understood": 5517,
      "triumph": 5518,
      "ification": 5519,
      "delve": 5520,
      "dividing": 5521,
      "expressions": 5522,
      "block": 5523,
      "Hello": 5524,
      "Prep": 5525,
      "branch": 5526,
      "Guide": 5527,
      "mythology": 5528,
      "chocolate": 5529,
      "72": 5530,
      "Eif": 5531,
      "Fil": 5532,
      "Kaden": 5533,
      "Opt": 5534,
      "bread": 5535,
      "inhabit": 5536,
      "escape": 5537,
      "isa": 5538,
      "becoming": 5539,
      "achiev": 5540,
      "doctor": 5541,
      "White": 5542,
      "Anton": 5543,
      "seeing": 5544,
      "growing": 5545,
      "displays": 5546,
      "technique": 5547,
      "parameters": 5548,
      "selling": 5549,
      "cookies": 5550,
      "Roman": 5551,
      "physicist": 5552,
      "Eiffel": 5553,
      "').": 5554,
      "EX": 5555,
      "OL": 5556,
      "Rep": 5557,
      "gift": 5558,
      "contents": 5559,
      "lets": 5560,
      "inputFile": 5561,
      "twilight": 5562,
      "crime": 5563,
      "sym": 5564,
      "minal": 5565,
      "managed": 5566,
      "planets": 5567,
      "smaller": 5568,
      "broken": 5569,
      "flex": 5570,
      "candidate": 5571,
      "difficulty": 5572,
      "theoretical": 5573,
      "completed": 5574,
      "gravity": 5575,
      "expanse": 5576,
      "\"\\": 5577,
      "65": 5578,
      "Case": 5579,
      "WS": 5580,
      "rates": 5581,
      "tables": 5582,
      "tagon": 5583,
      "altern": 5584,
      "tok": 5585,
      "edia": 5586,
      "decl": 5587,
      "ilia": 5588,
      "tee": 5589,
      "embody": 5590,
      "total_": 5591,
      "ief": 5592,
      "prepar": 5593,
      "Nova": 5594,
      "Train": 5595,
      "'])": 5596,
      "souls": 5597,
      "bucket_name": 5598,
      "spiritual": 5599,
      "interacts": 5600,
      "continuing": 5601,
      "perspectives": 5602,
      "encourages": 5603,
      "establish": 5604,
      "spectacle": 5605,
      "Storage": 5606,
      "E3": 5607,
      "Tree": 5608,
      "Wal": 5609,
      "brow": 5610,
      "cached": 5611,
      "pull": 5612,
      "island": 5613,
      "advoc": 5614,
      "resized": 5615,
      "trails": 5616,
      "bytes": 5617,
      "noticed": 5618,
      "upper": 5619,
      "afra": 5620,
      "define": 5621,
      "persona": 5622,
      "tonight": 5623,
      "looks": 5624,
      "thoughtfully": 5625,
      "depend": 5626,
      "eventually": 5627,
      "deleted": 5628,
      "mechanics": 5629,
      "Define": 5630,
      "phenomena": 5631,
      "faith": 5632,
      "History": 5633,
      "holographic": 5634,
      "fundament": 5635,
      "PRIMARY": 5636,
      "infectious": 5637,
      "bacteria": 5638,
      "afraid": 5639,
      "CE": 5640,
      "Div": 5641,
      "Hy": 5642,
      "Pop": 5643,
      "haven": 5644,
      "mited": 5645,
      "enem": 5646,
      "arity": 5647,
      "ardo": 5648,
      "sect": 5649,
      "uration": 5650,
      "adult": 5651,
      "idents": 5652,
      "ola": 5653,
      "Thomas": 5654,
      "producing": 5655,
      "20th": 5656,
      "19th": 5657,
      "increases": 5658,
      "raised": 5659,
      "calls": 5660,
      "groundbreaking": 5661,
      "delete_": 5662,
      "carefully": 5663,
      "buildings": 5664,
      "happy": 5665,
      "capture": 5666,
      "contribute": 5667,
      "updating": 5668,
      "delimited": 5669,
      "believes": 5670,
      "Phys": 5671,
      "retrieve": 5672,
      "decipher": 5673,
      "Quantum": 5674,
      ")!)": 5675,
      "34": 5676,
      "450": 5677,
      "Bre": 5678,
      "Hours": 5679,
      "Lisa": 5680,
      "cab": 5681,
      "dro": 5682,
      "lux": 5683,
      "asse": 5684,
      "shine": 5685,
      "sigh": 5686,
      "estimate": 5687,
      "owner": 5688,
      "cris": 5689,
      "averse": 5690,
      "connecting": 5691,
      "binary": 5692,
      "Build": 5693,
      "filtered": 5694,
      "heavens": 5695,
      "parseInt": 5696,
      "fitness": 5697,
      "detective": 5698,
      "Italy": 5699,
      "Leonardo": 5700,
      "Scraper": 5701,
      "Richard": 5702,
      "Cr": 5703,
      "bind": 5704,
      "lor": 5705,
      "tone": 5706,
      "tong": 5707,
      "}\",": 5708,
      "inher": 5709,
      "beacon": 5710,
      "getMessage": 5711,
      "flora": 5712,
      "Doe": 5713,
      "happiness": 5714,
      "Character": 5715,
      "haun": 5716,
      "possibly": 5717,
      "immers": 5718,
      "billion": 5719,
      "soothing": 5720,
      "##": 5721,
      "Dream": 5722,
      "Field": 5723,
      "IP": 5724,
      "Miles": 5725,
      "Park": 5726,
      "Pos": 5727,
      "cision": 5728,
      "hes": 5729,
      "hom": 5730,
      "sway": 5731,
      "waters": 5732,
      "eras": 5733,
      "accommo": 5734,
      "forgotten": 5735,
      "beings": 5736,
      "shot": 5737,
      "sufficient": 5738,
      "portion": 5739,
      "Plugging": 5740,
      "filters": 5741,
      "skill": 5742,
      "helped": 5743,
      "leads": 5744,
      "keeping": 5745,
      "SET": 5746,
      "swim": 5747,
      "simulates": 5748,
      "Respond": 5749,
      "symbols": 5750,
      "extracted": 5751,
      "ENDINPUT": 5752,
      "ENDINSTRUCTION": 5753,
      "loyment": 5754,
      "BEGININPUT": 5755,
      "BEGININSTRUCTION": 5756,
      "focused": 5757,
      "possesses": 5758,
      "CONTEXT": 5759,
      "comfortable": 5760,
      "scholar": 5761,
      "anxiety": 5762,
      "fabric": 5763,
      "Sur": 5764,
      "Tok": 5765,
      "Two": 5766,
      "_blob": 5767,
      "cpp": 5768,
      "dip": 5769,
      "failed": 5770,
      "asm": 5771,
      "conception": 5772,
      "feature": 5773,
      "spending": 5774,
      "compared": 5775,
      "interaction": 5776,
      "precious": 5777,
      "passing": 5778,
      "dram": 5779,
      "Encode": 5780,
      "eleph": 5781,
      "Format": 5782,
      "lastic": 5783,
      "Listen": 5784,
      "layers": 5785,
      "simultaneously": 5786,
      "shapes": 5787,
      "economic": 5788,
      "instrument": 5789,
      "solutely": 5790,
      "Keep": 5791,
      "LinkedList": 5792,
      "Based": 5793,
      "Elastic": 5794,
      "Pet": 5795,
      "_n": 5796,
      "scar": 5797,
      "itter": 5798,
      "ford": 5799,
      "apy": 5800,
      "choos": 5801,
      "resulting": 5802,
      "keywords": 5803,
      "chest": 5804,
      "__init": 5805,
      "roots": 5806,
      "candy": 5807,
      "determined": 5808,
      "Charlie": 5809,
      "military": 5810,
      "phrases": 5811,
      "threat": 5812,
      "Customer": 5813,
      "Volume": 5814,
      "tagonist": 5815,
      "tokens": 5816,
      "__init__": 5817,
      "4x": 5818,
      "Action": 5819,
      "Ben": 5820,
      "Hen": 5821,
      "Pu": 5822,
      "Test": 5823,
      "lone": 5824,
      "na": 5825,
      "ological": 5826,
      "pg": 5827,
      "rum": 5828,
      "tles": 5829,
      "inf": 5830,
      "chron": 5831,
      "irl": 5832,
      "irt": 5833,
      "neat": 5834,
      "assist": 5835,
      "earlier": 5836,
      "flash": 5837,
      "chem": 5838,
      "refers": 5839,
      "ENF": 5840,
      "particles": 5841,
      "represented": 5842,
      "favorable": 5843,
      "bags": 5844,
      "revealing": 5845,
      "filling": 5846,
      "mesmer": 5847,
      "focusing": 5848,
      "promoting": 5849,
      "spoke": 5850,
      "surprise": 5851,
      "paralleled": 5852,
      "Available": 5853,
      "Louis": 5854,
      "Old": 5855,
      "_list": 5856,
      "eat": 5857,
      "flies": 5858,
      "slang": 5859,
      "wings": 5860,
      "atory": 5861,
      "oring": 5862,
      "unparalleled": 5863,
      "shr": 5864,
      "iving": 5865,
      "poses": 5866,
      "searching": 5867,
      "Also": 5868,
      "indep": 5869,
      "asking": 5870,
      "launch": 5871,
      "woven": 5872,
      "portr": 5873,
      "fascination": 5874,
      "imagination": 5875,
      "agram": 5876,
      "namespace": 5877,
      "Integer": 5878,
      "Ashley": 5879,
      ":\");": 5880,
      "Brid": 5881,
      "Jim": 5882,
      "hint": 5883,
      "kill": 5884,
      "mouth": 5885,
      "ano": 5886,
      "redis": 5887,
      "measures": 5888,
      "lid": 5889,
      "unk": 5890,
      "weigh": 5891,
      "turing": 5892,
      "discourse": 5893,
      "intertw": 5894,
      "ING": 5895,
      "version": 5896,
      "venture": 5897,
      "eleg": 5898,
      "operating": 5899,
      "clock": 5900,
      "identity": 5901,
      "picked": 5902,
      "ierce": 5903,
      "walking": 5904,
      "Empty": 5905,
      "intric": 5906,
      "circum": 5907,
      "ArrayList": 5908,
      "Egypti": 5909,
      "Original": 5910,
      "thesis": 5911,
      "Further": 5912,
      "Elasticsearch": 5913,
      "\").": 5914,
      "900": 5915,
      "Base": 5916,
      "Hol": 5917,
      "Nature": 5918,
      "aes": 5919,
      "bits": 5920,
      "fare": 5921,
      "nation": 5922,
      "rush": 5923,
      "saving": 5924,
      "ifying": 5925,
      "enduring": 5926,
      "antiqu": 5927,
      "ameter": 5928,
      "epy": 5929,
      "compare": 5930,
      "obtain": 5931,
      "Exit": 5932,
      "programming": 5933,
      "ression": 5934,
      "pository": 5935,
      "sequent": 5936,
      "mountain": 5937,
      "principle": 5938,
      "economy": 5939,
      "contemporary": 5940,
      "survival": 5941,
      "RESTful": 5942,
      "Literature": 5943,
      "featuring": 5944,
      "alphabet": 5945,
      "AWS": 5946,
      "Multi": 5947,
      "bond": 5948,
      "ql": 5949,
      "sources": 5950,
      "zip": 5951,
      "rew": 5952,
      "revel": 5953,
      "ghter": 5954,
      "worst": 5955,
      "eval": 5956,
      "Week": 5957,
      "worlds": 5958,
      "manip": 5959,
      "guiding": 5960,
      "widget": 5961,
      "depending": 5962,
      "motion": 5963,
      "involve": 5964,
      "astrology": 5965,
      "implementation": 5966,
      "Egypt": 5967,
      "thrives": 5968,
      "memorable": 5969,
      "Ho": 5970,
      "Haw": 5971,
      "La": 5972,
      "Many": 5973,
      "Pul": 5974,
      "eer": 5975,
      "eur": 5976,
      "san": 5977,
      "anc": 5978,
      "ani": 5979,
      "stations": 5980,
      "ications": 5981,
      "entity": 5982,
      "uncan": 5983,
      "oluminescent": 5984,
      "examples": 5985,
      "tears": 5986,
      "geome": 5987,
      "grate": 5988,
      "cking": 5989,
      "Encoder": 5990,
      "maybe": 5991,
      "NewEncoder": 5992,
      "witty": 5993,
      "designs": 5994,
      "pleasure": 5995,
      "subtraction": 5996,
      "winning": 5997,
      "selected": 5998,
      "separate": 5999,
      "attered": 6000,
      "Salary": 6001,
      "Triangle": 6002,
      "North": 6003,
      "accident": 6004,
      "Christ": 6005,
      "satisf": 6006,
      "78": 6007,
      "<>": 6008,
      "=$": 6009,
      "Could": 6010,
      "Gold": 6011,
      "PM": 6012,
      "Revolution": 6013,
      "Schema": 6014,
      "fed": 6015,
      "gency": 6016,
      "hu": 6017,
      "hat": 6018,
      "mund": 6019,
      "tun": 6020,
      "vit": 6021,
      "repe": 6022,
      "stances": 6023,
      "seeds": 6024,
      "amed": 6025,
      "boost": 6026,
      "nod": 6027,
      "compon": 6028,
      "songs": 6029,
      "funds": 6030,
      "deser": 6031,
      "solar": 6032,
      "Process": 6033,
      "subtle": 6034,
      "signs": 6035,
      "misconception": 6036,
      "kingdom": 6037,
      "cycle": 6038,
      "Args": 6039,
      "salaries": 6040,
      "RES": 6041,
      "situations": 6042,
      "driver": 6043,
      "SQLite": 6044,
      "packages": 6045,
      "morrow": 6046,
      "accepts": 6047,
      "wrong": 6048,
      "Lucy": 6049,
      "framework": 6050,
      "philosophy": 6051,
      "thropo": 6052,
      "Japanese": 6053,
      "exceptional": 6054,
      "galaxies": 6055,
      ".*;": 6056,
      "49": 6057,
      "CP": 6058,
      "Vinci": 6059,
      "hi": 6060,
      "iance": 6061,
      "ored": 6062,
      "tender": 6063,
      "inc": 6064,
      "arrow": 6065,
      "icating": 6066,
      "icates": 6067,
      "heap": 6068,
      "lore": 6069,
      "unity": 6070,
      "unfold": 6071,
      "sock": 6072,
      "byte": 6073,
      "grat": 6074,
      "htag": 6075,
      "marvel": 6076,
      "covering": 6077,
      "patience": 6078,
      "Moon": 6079,
      "opening": 6080,
      "decision": 6081,
      "Perform": 6082,
      "holding": 6083,
      "genre": 6084,
      "discussion": 6085,
      "cells": 6086,
      "achievements": 6087,
      "eloquent": 6088,
      "Potter": 6089,
      "Similar": 6090,
      "Url": 6091,
      "Austen": 6092,
      "Department": 6093,
      "E4": 6094,
      "ED": 6095,
      "Ly": 6096,
      "Wo": 6097,
      "reign": 6098,
      "ingu": 6099,
      "rose": 6100,
      "ilton": 6101,
      "ligent": 6102,
      "excl": 6103,
      "ession": 6104,
      "eming": 6105,
      "grid": 6106,
      "hashtag": 6107,
      "ears": 6108,
      "owners": 6109,
      "culpt": 6110,
      "precision": 6111,
      "monitor": 6112,
      "humidity": 6113,
      "resultSet": 6114,
      "publ": 6115,
      "guided": 6116,
      "keeps": 6117,
      "please": 6118,
      "Collect": 6119,
      "sequences": 6120,
      "Books": 6121,
      "practices": 6122,
      "ValueError": 6123,
      "bringing": 6124,
      "QAModel": 6125,
      "companion": 6126,
      "collabor": 6127,
      "Vega": 6128,
      "legendary": 6129,
      "duty": 6130,
      ")]": 6131,
      "Back": 6132,
      "CY": 6133,
      "Cec": 6134,
      "Ht": 6135,
      "Pol": 6136,
      "Site": 6137,
      "cart": 6138,
      "jk": 6139,
      "ygen": 6140,
      "thur": 6141,
      "theses": 6142,
      "enlight": 6143,
      "align": 6144,
      "edges": 6145,
      "forts": 6146,
      "arest": 6147,
      "shown": 6148,
      "female": 6149,
      "Stone": 6150,
      "posal": 6151,
      "counted": 6152,
      "flavors": 6153,
      "equals": 6154,
      "linear": 6155,
      "stored": 6156,
      "sunset": 6157,
      "Arthur": 6158,
      "driving": 6159,
      "Parse": 6160,
      "kindness": 6161,
      "entered": 6162,
      "cuis": 6163,
      "exciting": 6164,
      "masterpiece": 6165,
      "Helper": 6166,
      "InputStream": 6167,
      "Ladies": 6168,
      "massive": 6169,
      "promises": 6170,
      "discipline": 6171,
      "enigmatic": 6172,
      "perceive": 6173,
      "chemical": 6174,
      "Cecilia": 6175,
      "Ely": 6176,
      "Part": 6177,
      "Ru": 6178,
      "hits": 6179,
      "mud": 6180,
      "museum": 6181,
      "sculpt": 6182,
      "urn": 6183,
      "admin": 6184,
      "uncertain": 6185,
      "neither": 6186,
      "perception": 6187,
      "cream": 6188,
      "wash": 6189,
      "igen": 6190,
      "estim": 6191,
      "Health": 6192,
      "min_": 6193,
      "median": 6194,
      "Listener": 6195,
      "announ": 6196,
      "grandeur": 6197,
      "Orion": 6198,
      "stronger": 6199,
      "athed": 6200,
      "gathered": 6201,
      "beliefs": 6202,
      "evolved": 6203,
      "phrase": 6204,
      "resolve": 6205,
      "Micro": 6206,
      "direction": 6207,
      "pizza": 6208,
      ".'": 6209,
      "360": 6210,
      "84": 6211,
      "JO": 6212,
      "OP": 6213,
      "Simple": 6214,
      "Will": 6215,
      "dict": 6216,
      "gment": 6217,
      "iation": 6218,
      "anks": 6219,
      "icorn": 6220,
      "beloved": 6221,
      "neath": 6222,
      "weak": 6223,
      "sures": 6224,
      "suffer": 6225,
      "blank": 6226,
      "sonnet": 6227,
      "flour": 6228,
      "managing": 6229,
      "rights": 6230,
      "accuracy": 6231,
      "website": 6232,
      "domin": 6233,
      "Frid": 6234,
      "Mean": 6235,
      "According": 6236,
      "scientist": 6237,
      "tradition": 6238,
      "cups": 6239,
      "normal": 6240,
      "practical": 6241,
      "Initialize": 6242,
      "dishes": 6243,
      "lications": 6244,
      "India": 6245,
      "UPDATE": 6246,
      "aniel": 6247,
      "750": 6248,
      "Bank": 6249,
      "Mart": 6250,
      "Wik": 6251,
      "_1": 6252,
      "coup": 6253,
      "fat": 6254,
      "ramid": 6255,
      "uate": 6256,
      "uity": 6257,
      "vary": 6258,
      "ware": 6259,
      "atiable": 6260,
      "entr": 6261,
      "ims": 6262,
      "noon": 6263,
      "bra": 6264,
      "login": 6265,
      "drum": 6266,
      "cord": 6267,
      "efforts": 6268,
      "ector": 6269,
      "insatiable": 6270,
      "divine": 6271,
      "transl": 6272,
      "seemingly": 6273,
      "technologies": 6274,
      "businesses": 6275,
      "Trie": 6276,
      "paintings": 6277,
      "lady": 6278,
      "Lady": 6279,
      "critical": 6280,
      "recursive": 6281,
      "exhibit": 6282,
      "Michael": 6283,
      "immediately": 6284,
      "54": 6285,
      "5000": 6286,
      "Mac": 6287,
      "Mike": 6288,
      "Raph": 6289,
      "Take": 6290,
      "YO": 6291,
      "ode": 6292,
      "rics": 6293,
      "winter": 6294,
      "admir": 6295,
      "territ": 6296,
      "abul": 6297,
      "serious": 6298,
      "spell": 6299,
      "phones": 6300,
      "Contain": 6301,
      "folk": 6302,
      "substitute": 6303,
      "experienced": 6304,
      "walks": 6305,
      "Builder": 6306,
      "your_password": 6307,
      "queen": 6308,
      "sparkling": 6309,
      "peaceful": 6310,
      "narratives": 6311,
      "introduced": 6312,
      "conducting": 6313,
      "African": 6314,
      "Raphael": 6315,
      "Doc": 6316,
      "Driver": 6317,
      "aid": 6318,
      "faster": 6319,
      "jar": 6320,
      "vac": 6321,
      "zy": 6322,
      "rever": 6323,
      "istration": 6324,
      "(\"%": 6325,
      "countries": 6326,
      "movements": 6327,
      "Atl": 6328,
      "SECRE": 6329,
      "Display": 6330,
      "_file_path": 6331,
      "walked": 6332,
      "speaks": 6333,
      "thrilling": 6334,
      "Knowledge": 6335,
      "oxygen": 6336,
      "recently": 6337,
      "investigation": 6338,
      "puzzle": 6339,
      "easily": 6340,
      "avoid": 6341,
      "tongue": 6342,
      "Http": 6343,
      "SECRET": 6344,
      "42": 6345,
      "Elon": 6346,
      "Twe": 6347,
      "fills": 6348,
      "sen": 6349,
      "y_": 6350,
      "zed": 6351,
      "attire": 6352,
      "mel": 6353,
      "ulating": 6354,
      "weave": 6355,
      "ressive": 6356,
      "trail": 6357,
      "worn": 6358,
      "intu": 6359,
      "Inside": 6360,
      "butter": 6361,
      "hole": 6362,
      "overcome": 6363,
      "responsible": 6364,
      "product_id": 6365,
      "ideal": 6366,
      "backdrop": 6367,
      "voy": 6368,
      "primar": 6369,
      "equally": 6370,
      "speeds": 6371,
      "identified": 6372,
      "sessions": 6373,
      "Maria": 6374,
      "supports": 6375,
      "execut": 6376,
      "globe": 6377,
      "Charles": 6378,
      "shaping": 6379,
      "photography": 6380,
      "gathering": 6381,
      "steadfast": 6382,
      "platforms": 6383,
      "victory": 6384,
      "Known": 6385,
      "religious": 6386,
      "fundamental": 6387,
      "Bridge": 6388,
      "uncanny": 6389,
      "(*": 6390,
      "Down": 6391,
      "Math": 6392,
      "iors": 6393,
      "kers": 6394,
      "soup": 6395,
      "uous": 6396,
      "enon": 6397,
      "encoding": 6398,
      "bee": 6399,
      "bella": 6400,
      "unlock": 6401,
      "weap": 6402,
      "emit": 6403,
      "Instead": 6404,
      "oking": 6405,
      "Ancient": 6406,
      "hoo": 6407,
      "crack": 6408,
      "choices": 6409,
      "user_id": 6410,
      "struck": 6411,
      "lessons": 6412,
      "subtly": 6413,
      "lingu": 6414,
      "chef": 6415,
      "delic": 6416,
      "writes": 6417,
      "steep": 6418,
      "Serve": 6419,
      "Fraction": 6420,
      "adventur": 6421,
      "variety": 6422,
      "hypo": 6423,
      "pursue": 6424,
      "excited": 6425,
      "optimal": 6426,
      "milk": 6427,
      "Production": 6428,
      "damage": 6429,
      "obstacles": 6430,
      "jkstra": 6431,
      "abulary": 6432,
      "Fire": 6433,
      "Water": 6434,
      "lished": 6435,
      "senses": 6436,
      "}:": 6437,
      "thee": 6438,
      "stick": 6439,
      "isEmpty": 6440,
      "icism": 6441,
      "trace": 6442,
      "quaint": 6443,
      "aked": 6444,
      "tware": 6445,
      "Stark": 6446,
      "otherwise": 6447,
      "Context": 6448,
      "observe": 6449,
      "atively": 6450,
      "ballet": 6451,
      "summarize": 6452,
      "opened": 6453,
      "whispering": 6454,
      "Contin": 6455,
      "aura": 6456,
      "biology": 6457,
      "doubt": 6458,
      "occasional": 6459,
      "infinite": 6460,
      "Olivia": 6461,
      "Store": 6462,
      "pivot": 6463,
      "boolean": 6464,
      "mesmerizing": 6465,
      "'{": 6466,
      "={": 6467,
      "Aiden": 6468,
      "Lang": 6469,
      "_t": 6470,
      "campaign": 6471,
      "fue": 6472,
      "laws": 6473,
      "pin": 6474,
      "insur": 6475,
      "leans": 6476,
      "acies": 6477,
      "una": 6478,
      "ags": 6479,
      "resist": 6480,
      "extr": 6481,
      "amin": 6482,
      "fest": 6483,
      "tight": 6484,
      "php": 6485,
      "2020": 6486,
      "everyday": 6487,
      "folder": 6488,
      "marine": 6489,
      "msg": 6490,
      "outputFile": 6491,
      "performances": 6492,
      "azure": 6493,
      "suppose": 6494,
      "depict": 6495,
      "Stephen": 6496,
      "showing": 6497,
      "echoed": 6498,
      "layer": 6499,
      "crafted": 6500,
      "update_": 6501,
      "horse": 6502,
      "devices": 6503,
      "ASS": 6504,
      "vowels": 6505,
      "accomplish": 6506,
      "rapid": 6507,
      "Beautiful": 6508,
      "primarily": 6509,
      "Actions": 6510,
      "Among": 6511,
      "Bill": 6512,
      "Soup": 6513,
      "bn": 6514,
      "cakes": 6515,
      "dare": 6516,
      "dense": 6517,
      "faint": 6518,
      "lace": 6519,
      "rab": 6520,
      "ta": 6521,
      "thirst": 6522,
      "hearing": 6523,
      "demo": 6524,
      "coaster": 6525,
      "adm": 6526,
      "rival": 6527,
      "absor": 6528,
      "indust": 6529,
      "intage": 6530,
      "intense": 6531,
      "comic": 6532,
      "interpre": 6533,
      "Construct": 6534,
      "1200": 6535,
      "1500": 6536,
      "climate": 6537,
      "plane": 6538,
      "clothing": 6539,
      "polite": 6540,
      "restrial": 6541,
      "communicate": 6542,
      "Marvin": 6543,
      "Ident": 6544,
      "released": 6545,
      "reducing": 6546,
      "effectively": 6547,
      "aims": 6548,
      "reflects": 6549,
      "entirely": 6550,
      "inviting": 6551,
      "sugar": 6552,
      "panic": 6553,
      "encourage": 6554,
      "micro": 6555,
      "vocabulary": 6556,
      "enthusiasm": 6557,
      "mathematical": 6558,
      "Music": 6559,
      "extremely": 6560,
      "expertise": 6561,
      "inhabitants": 6562,
      "Fit": 6563,
      "GR": 6564,
      "Net": 6565,
      "SU": 6566,
      "Tre": 6567,
      "Vector": 6568,
      "bast": 6569,
      "bble": 6570,
      "bold": 6571,
      "batch": 6572,
      "dwell": 6573,
      "gi": 6574,
      "gun": 6575,
      "mult": 6576,
      "rt": 6577,
      "renew": 6578,
      "ington": 6579,
      "memo": 6580,
      "chant": 6581,
      "cherry": 6582,
      "liqu": 6583,
      "ghost": 6584,
      "ifer": 6585,
      "compell": 6586,
      "drinks": 6587,
      "Code": 6588,
      "dbname": 6589,
      "characteristics": 6590,
      "decides": 6591,
      "sitting": 6592,
      "mote": 6593,
      "sorrow": 6594,
      "floating": 6595,
      "scientists": 6596,
      "Column": 6597,
      "isticated": 6598,
      "vertex": 6599,
      "landscapes": 6600,
      "surroundings": 6601,
      "allest": 6602,
      "sophisticated": 6603,
      "harmonious": 6604,
      "participants": 6605,
      "tranquil": 6606,
      "violin": 6607,
      "cryptic": 6608,
      "People": 6609,
      "sustainable": 6610,
      "meticulous": 6611,
      "Directory": 6612,
      "compelling": 6613,
      "85": 6614,
      "Amount": 6615,
      "Gand": 6616,
      "Page": 6617,
      "Session": 6618,
      "Temp": 6619,
      "Wall": 6620,
      "danced": 6621,
      "lush": 6622,
      "ograph": 6623,
      "tro": 6624,
      "recommend": 6625,
      "arith": 6626,
      "icting": 6627,
      "seam": 6628,
      "metal": 6629,
      "chart": 6630,
      "chamber": 6631,
      "cope": 6632,
      "terrain": 6633,
      "peek": 6634,
      "boli": 6635,
      "thern": 6636,
      "opy": 6637,
      "foli": 6638,
      "Alf": 6639,
      "Uni": 6640,
      "transfer": 6641,
      "laid": 6642,
      "court": 6643,
      "tweepy": 6644,
      "crypto": 6645,
      "rolling": 6646,
      "holes": 6647,
      "caused": 6648,
      "Upload": 6649,
      "numerator": 6650,
      "eternal": 6651,
      "bottom": 6652,
      "winner": 6653,
      "generate_": 6654,
      "occurred": 6655,
      "parent": 6656,
      "pauses": 6657,
      "suggests": 6658,
      "dinner": 6659,
      "fleeting": 6660,
      "settings": 6661,
      "ISTS": 6662,
      "relief": 6663,
      "honor": 6664,
      "brilliant": 6665,
      "Password": 6666,
      "EXISTS": 6667,
      "CPU": 6668,
      "39": 6669,
      "=['": 6670,
      "Friend": 6671,
      "fro": 6672,
      "kin": 6673,
      "pause": 6674,
      "sail": 6675,
      "invalid": 6676,
      "recall": 6677,
      "stall": 6678,
      "ara": 6679,
      "chuck": 6680,
      "lift": 6681,
      "convent": 6682,
      "ague": 6683,
      "aret": 6684,
      "qual": 6685,
      "Theo": 6686,
      "sium": 6687,
      "proud": 6688,
      "comed": 6689,
      "Rec": 6690,
      "despair": 6691,
      "precise": 6692,
      "sheep": 6693,
      "voices": 6694,
      "chemist": 6695,
      "misch": 6696,
      "locate": 6697,
      "sender": 6698,
      "approached": 6699,
      "moonlight": 6700,
      "Solving": 6701,
      "\"\"\"": 6702,
      "Profess": 6703,
      "preferences": 6704,
      "birthday": 6705,
      "licity": 6706,
      "picture": 6707,
      "chickens": 6708,
      "fostering": 6709,
      "luxury": 6710,
      "sanct": 6711,
      "><": 6712,
      "CD": 6713,
      "Flo": 6714,
      "Mc": 6715,
      "Row": 6716,
      "dp": 6717,
      "hide": 6718,
      "kiss": 6719,
      "mous": 6720,
      "sme": 6721,
      "anthropo": 6722,
      "replaced": 6723,
      "remote": 6724,
      "stunning": 6725,
      "isions": 6726,
      "isms": 6727,
      "acious": 6728,
      "adj": 6729,
      "ading": 6730,
      "beard": 6731,
      "stral": 6732,
      "compound": 6733,
      "timeless": 6734,
      "corners": 6735,
      "current_": 6736,
      "ballo": 6737,
      "behold": 6738,
      "refresh": 6739,
      "websocket": 6740,
      "facing": 6741,
      "interested": 6742,
      "reduction": 6743,
      "inventory": 6744,
      "arrived": 6745,
      "Samuel": 6746,
      "scenes": 6747,
      "hotel": 6748,
      "debates": 6749,
      "phenomenon": 6750,
      "fixed": 6751,
      "Indian": 6752,
      "broadcast": 6753,
      "ceremon": 6754,
      "Hamilton": 6755,
      "powers": 6756,
      "symboli": 6757,
      "Henry": 6758,
      "=%": 6759,
      "Act": 6760,
      "Nik": 6761,
      "_dir": 6762,
      "daugh": 6763,
      "mad": 6764,
      "ovan": 6765,
      "uer": 6766,
      "uff": 6767,
      "vital": 6768,
      "vintage": 6769,
      "inj": 6770,
      "tomorrow": 6771,
      "roles": 6772,
      "vet": 6773,
      "coord": 6774,
      "unlike": 6775,
      "apers": 6776,
      "expon": 6777,
      "span": 6778,
      "central": 6779,
      "carried": 6780,
      "Convert": 6781,
      "ificent": 6782,
      "cheer": 6783,
      "ORD": 6784,
      "Before": 6785,
      "locations": 6786,
      "intelligent": 6787,
      "emotion": 6788,
      "simplicity": 6789,
      "strive": 6790,
      "gentlemen": 6791,
      "AME": 6792,
      "Solve": 6793,
      "Users": 6794,
      "Donovan": 6795,
      "heroes": 6796,
      "societies": 6797,
      "Retri": 6798,
      "murder": 6799,
      "distinctive": 6800,
      "entertainment": 6801,
      "secure": 6802,
      "Nikola": 6803,
      "89": 6804,
      "Wind": 6805,
      "Ya": 6806,
      "bare": 6807,
      "cake": 6808,
      "fame": 6809,
      "fence": 6810,
      "h1": 6811,
      "tend": 6812,
      "whel": 6813,
      "inquir": 6814,
      "oned": 6815,
      "leep": 6816,
      "isbn": 6817,
      "chase": 6818,
      "cos": 6819,
      "trade": 6820,
      "Intern": 6821,
      "eless": 6822,
      "Remove": 6823,
      "minis": 6824,
      "shell": 6825,
      "Conduct": 6826,
      "Exp": 6827,
      "autumn": 6828,
      "casual": 6829,
      "Color": 6830,
      "discuss": 6831,
      "referencing": 6832,
      "stopher": 6833,
      "audi": 6834,
      "norms": 6835,
      "splend": 6836,
      "immense": 6837,
      "literary": 6838,
      "dangerous": 6839,
      "Christopher": 6840,
      "occupancy": 6841,
      "Point2D": 6842,
      "Factor": 6843,
      "cascade": 6844,
      "Similarly": 6845,
      "Microsoft": 6846,
      "entrance": 6847,
      "Cy": 6848,
      "CESS": 6849,
      "DO": 6850,
      "Files": 6851,
      "Isol": 6852,
      "Peter": 6853,
      "Rest": 6854,
      "_back": 6855,
      "cit": 6856,
      "dash": 6857,
      "diction": 6858,
      "hire": 6859,
      "pione": 6860,
      "tens": 6861,
      "tension": 6862,
      "ule": 6863,
      "reward": 6864,
      "ende": 6865,
      "sem": 6866,
      "unusual": 6867,
      "excell": 6868,
      "percent": 6869,
      "therapy": 6870,
      "grass": 6871,
      "spends": 6872,
      "uster": 6873,
      "disk": 6874,
      "hob": 6875,
      "partner": 6876,
      "commer": 6877,
      "medical": 6878,
      "performing": 6879,
      "Perhaps": 6880,
      "Sebast": 6881,
      "happening": 6882,
      "certainly": 6883,
      "involving": 6884,
      "falling": 6885,
      "scores": 6886,
      "uploaded": 6887,
      "Employees": 6888,
      "paid": 6889,
      "interpretation": 6890,
      "claimed": 6891,
      "simplifies": 6892,
      "retrieves": 6893,
      "official": 6894,
      "mentioned": 6895,
      "IGHT": 6896,
      "Hyper": 6897,
      "2f": 6898,
      "Cir": 6899,
      "Pal": 6900,
      "Winst": 6901,
      "aus": 6902,
      "jest": 6903,
      "pic": 6904,
      "sau": 6905,
      "}'": 6906,
      "arom": 6907,
      "meals": 6908,
      "conven": 6909,
      "ulated": 6910,
      "neck": 6911,
      "export": 6912,
      "pest": 6913,
      "plt": 6914,
      "solid": 6915,
      "aker": 6916,
      "readers": 6917,
      "effort": 6918,
      "calculations": 6919,
      "user_": 6920,
      "smallest": 6921,
      "relativity": 6922,
      "temper": 6923,
      "happen": 6924,
      "midst": 6925,
      "reduced": 6926,
      "Emma": 6927,
      "perfectly": 6928,
      "loyal": 6929,
      "gracefully": 6930,
      "Method": 6931,
      "descending": 6932,
      "hopes": 6933,
      "dynamic": 6934,
      "Introducing": 6935,
      "bioluminescent": 6936,
      "authent": 6937,
      "majestic": 6938,
      "Antonio": 6939,
      "Tokyo": 6940,
      "Furthermore": 6941,
      "estimated": 6942,
      "Yahoo": 6943,
      "Sebastian": 6944,
      "Winston": 6945,
      "*,": 6946,
      "56": 6947,
      ":\")": 6948,
      "GER": 6949,
      "Light": 6950,
      "MA": 6951,
      "NE": 6952,
      "Sud": 6953,
      "USER": 6954,
      "^(": 6955,
      "fibonacci": 6956,
      "pens": 6957,
      "pier": 6958,
      "wife": 6959,
      "thetic": 6960,
      "attribut": 6961,
      "orient": 6962,
      "roof": 6963,
      "velo": 6964,
      "rivers": 6965,
      "aved": 6966,
      "nodes": 6967,
      "calculation": 6968,
      "...\"": 6969,
      "keyword": 6970,
      "199": 6971,
      "Newton": 6972,
      "ucky": 6973,
      "weekly": 6974,
      "origins": 6975,
      "happens": 6976,
      "improved": 6977,
      "traversal": 6978,
      "environments": 6979,
      "barber": 6980,
      "navigating": 6981,
      "breathtaking": 6982,
      "mileage": 6983,
      "appreciation": 6984,
      "Neil": 6985,
      "synthesis": 6986,
      "Isabella": 6987,
      "vehicles": 6988,
      "glimp": 6989,
      "responsibility": 6990,
      "circumstances": 6991,
      "\"?": 6992,
      "Fut": 6993,
      "Iron": 6994,
      "Top": 6995,
      "loud": 6996,
      "nu": 6997,
      "narrow": 6998,
      "olog": 6999,
      "pit": 7000,
      "pper": 7001,
      "td": 7002,
      "uct": 7003,
      "ingen": 7004,
      "sections": 7005,
      "appoint": 7006,
      "external": 7007,
      "outcome": 7008,
      "moss": 7009,
      "artwork": 7010,
      "intensity": 7011,
      "sip": 7012,
      "poor": 7013,
      "antique": 7014,
      "tips": 7015,
      "datas": 7016,
      "obs": 7017,
      "grees": 7018,
      "defined": 7019,
      "faction": 7020,
      "submit": 7021,
      "hello": 7022,
      "closed": 7023,
      "imeter": 7024,
      "knowledgeable": 7025,
      "Beat": 7026,
      "Joan": 7027,
      "visitor": 7028,
      "Extracts": 7029,
      "Apples": 7030,
      "bottle": 7031,
      "haircut": 7032,
      "Summarize": 7033,
      "melodies": 7034,
      "encountered": 7035,
      "Alexander": 7036,
      "mathematics": 7037,
      "magnificent": 7038,
      "Architect": 7039,
      "Filter": 7040,
      "swimming": 7041,
      "Call": 7042,
      "Dere": 7043,
      "Jose": 7044,
      "Scan": 7045,
      "Te": 7046,
      "honey": 7047,
      "iout": 7048,
      "mice": 7049,
      "alge": 7050,
      "advert": 7051,
      "outgoing": 7052,
      "soil": 7053,
      "()`": 7054,
      "compo": 7055,
      "preced": 7056,
      "distr": 7057,
      "handed": 7058,
      "facts": 7059,
      "doubles": 7060,
      "image_path": 7061,
      "directed": 7062,
      "winds": 7063,
      "watched": 7064,
      "constantly": 7065,
      "ayscale": 7066,
      "Span": 7067,
      "Edge": 7068,
      "teacher": 7069,
      "Widgets": 7070,
      "limited": 7071,
      "Super": 7072,
      "thousands": 7073,
      "twinkling": 7074,
      "queries": 7075,
      "trends": 7076,
      "adults": 7077,
      "Professor": 7078,
      "Derek": 7079,
      "Joseph": 7080,
      "ioutil": 7081,
      "BC": 7082,
      "Jenn": 7083,
      "Scot": 7084,
      "_SECRET": 7085,
      "dt": 7086,
      "flying": 7087,
      "reminis": 7088,
      "stair": 7089,
      "aled": 7090,
      "itage": 7091,
      "ilit": 7092,
      "chess": 7093,
      "constrain": 7094,
      "usions": 7095,
      "promin": 7096,
      "amen": 7097,
      "acting": 7098,
      "Internal": 7099,
      "strconv": 7100,
      "tier": 7101,
      "izer": 7102,
      "Height": 7103,
      "eff": 7104,
      "consists": 7105,
      "foundation": 7106,
      "discoveries": 7107,
      "positions": 7108,
      "Perimeter": 7109,
      "towns": 7110,
      "burn": 7111,
      "legacy": 7112,
      "Evidence2": 7113,
      "imagine": 7114,
      "occurren": 7115,
      "algorithms": 7116,
      "wooden": 7117,
      "fighting": 7118,
      "collective": 7119,
      "simplify": 7120,
      "incorporating": 7121,
      "treatment": 7122,
      "umbled": 7123,
      "Player": 7124,
      "unravel": 7125,
      "scholarly": 7126,
      "audiences": 7127,
      "FA": 7128,
      "Fuel": 7129,
      "Mach": 7130,
      "MER": 7131,
      "Tony": 7132,
      "_url": 7133,
      "bought": 7134,
      "gan": 7135,
      "iers": 7136,
      "lou": 7137,
      "tough": 7138,
      "thin": 7139,
      "instruction": 7140,
      "eness": 7141,
      "orge": 7142,
      "arted": 7143,
      "suitable": 7144,
      "bye": 7145,
      "poly": 7146,
      "getElement": 7147,
      "igor": 7148,
      "constell": 7149,
      "playful": 7150,
      "trim": 7151,
      "defin": 7152,
      "argc": 7153,
      "argparse": 7154,
      "stepping": 7155,
      "prize": 7156,
      "divis": 7157,
      "connector": 7158,
      "Trace": 7159,
      "denly": 7160,
      "aredStatement": 7161,
      "particle": 7162,
      "software": 7163,
      "clever": 7164,
      "Marco": 7165,
      "Leo": 7166,
      "causes": 7167,
      "Auth": 7168,
      "sparked": 7169,
      "finger": 7170,
      "ambda": 7171,
      "Solver": 7172,
      "ACCESS": 7173,
      "comprehensive": 7174,
      "astronomy": 7175,
      "labels": 7176,
      "metaphor": 7177,
      "academic": 7178,
      "PreparedStatement": 7179,
      "Container": 7180,
      "BeautifulSoup": 7181,
      "getElementById": 7182,
      "Cand": 7183,
      "Four": 7184,
      "Fibonacci": 7185,
      "Gent": 7186,
      "Hum": 7187,
      "IZ": 7188,
      "Ocean": 7189,
      "Rand": 7190,
      "Rob": 7191,
      "Sign": 7192,
      "Wix": 7193,
      "eem": 7194,
      "eight": 7195,
      "rules": 7196,
      "oral": 7197,
      "isie": 7198,
      "degrees": 7199,
      "adium": 7200,
      "irony": 7201,
      "imately": 7202,
      "blow": 7203,
      "Stre": 7204,
      "sync": 7205,
      "sheer": 7206,
      "centime": 7207,
      "corn": 7208,
      "somewhere": 7209,
      "flask": 7210,
      "atherine": 7211,
      "headers": 7212,
      "sax": 7213,
      "afternoon": 7214,
      "miss": 7215,
      "harness": 7216,
      "showed": 7217,
      "Address": 7218,
      "Bytes": 7219,
      "advant": 7220,
      "approaches": 7221,
      "placing": 7222,
      "rainforest": 7223,
      "correctly": 7224,
      "widely": 7225,
      "Austral": 7226,
      "Chef": 7227,
      "mixing": 7228,
      "parentheses": 7229,
      "Maisie": 7230,
      "transformed": 7231,
      "composed": 7232,
      "recognized": 7233,
      "European": 7234,
      "Analyze": 7235,
      "revealed": 7236,
      "Whiskers": 7237,
      "Detect": 7238,
      "elimin": 7239,
      "dramatic": 7240,
      "Identify": 7241,
      "Suddenly": 7242,
      "Jennifer": 7243,
      "Gentle": 7244,
      "centimeters": 7245,
      ".');": 7246,
      "05": 7247,
      "51": 7248,
      "GE": 7249,
      "Met": 7250,
      "MON": 7251,
      "NAME": 7252,
      "Util": 7253,
      "Var": 7254,
      "Whe": 7255,
      "dresses": 7256,
      "gree": 7257,
      "gender": 7258,
      "hip": 7259,
      "lun": 7260,
      "mim": 7261,
      "phas": 7262,
      "reversed": 7263,
      "at_": 7264,
      "alike": 7265,
      "meant": 7266,
      "coat": 7267,
      "umber": 7268,
      "oting": 7269,
      "former": 7270,
      "seren": 7271,
      "viously": 7272,
      "angers": 7273,
      "willing": 7274,
      "lifestyle": 7275,
      "tried": 7276,
      "colle": 7277,
      "vessel": 7278,
      "inking": 7279,
      "calculating": 7280,
      "stepped": 7281,
      "realms": 7282,
      "sqrt": 7283,
      "idescent": 7284,
      "police": 7285,
      "decisions": 7286,
      "harsh": 7287,
      "emails": 7288,
      "Outro": 7289,
      "Database": 7290,
      "your_database": 7291,
      "bottles": 7292,
      "participating": 7293,
      "Feel": 7294,
      "Starlight": 7295,
      "satisfaction": 7296,
      "enemy": 7297,
      "choosing": 7298,
      "<>();": 7299,
      "arithmetic": 7300,
      "Isolde": 7301,
      "\"/": 7302,
      "Bas": 7303,
      "Dif": 7304,
      "Gen": 7305,
      "[-": 7306,
      "bine": 7307,
      "vation": 7308,
      "stark": 7309,
      "leaf": 7310,
      "icts": 7311,
      "ental": 7312,
      "healing": 7313,
      "dece": 7314,
      "urls": 7315,
      "lots": 7316,
      "loaves": 7317,
      "irling": 7318,
      "agers": 7319,
      "olen": 7320,
      "kest": 7321,
      "illusion": 7322,
      "num_": 7323,
      "puts": 7324,
      "implications": 7325,
      "esteem": 7326,
      "contro": 7327,
      "Though": 7328,
      "athers": 7329,
      "extends": 7330,
      "201": 7331,
      "charges": 7332,
      "cargo": 7333,
      "realize": 7334,
      "159": 7335,
      "chemy": 7336,
      "avery": 7337,
      "Without": 7338,
      "potter": 7339,
      "Love": 7340,
      "towers": 7341,
      "AND": 7342,
      "inventor": 7343,
      "invented": 7344,
      "Obama": 7345,
      "optimize": 7346,
      "gained": 7347,
      "celebration": 7348,
      "competition": 7349,
      "Market": 7350,
      "awareness": 7351,
      "shifts": 7352,
      "dynamics": 7353,
      "labeled": 7354,
      "George": 7355,
      "quisite": 7356,
      "Spanish": 7357,
      "'/": 7358,
      "Az": 7359,
      "Aud": 7360,
      "Oly": 7361,
      "Rem": 7362,
      "cow": 7363,
      "cises": 7364,
      "drew": 7365,
      "href": 7366,
      "kit": 7367,
      "pil": 7368,
      "sll": 7369,
      "erup": 7370,
      "seas": 7371,
      "detection": 7372,
      "meets": 7373,
      "beans": 7374,
      "unicorn": 7375,
      "iron": 7376,
      "aband": 7377,
      "allure": 7378,
      "stract": 7379,
      "tired": 7380,
      "overwhel": 7381,
      "studied": 7382,
      "fra": 7383,
      "guides": 7384,
      "lined": 7385,
      "expressing": 7386,
      "transformation": 7387,
      "transactions": 7388,
      "lasting": 7389,
      "winding": 7390,
      "reaches": 7391,
      "showcas": 7392,
      "Second": 7393,
      "oga": 7394,
      "Empire": 7395,
      "popularity": 7396,
      "numerology": 7397,
      "improvement": 7398,
      "mixed": 7399,
      "detected": 7400,
      "celebrated": 7401,
      "companies": 7402,
      "instruments": 7403,
      "Choose": 7404,
      "Increase": 7405,
      "Margaret": 7406,
      "paradox": 7407,
      "Divide": 7408,
      "homes": 7409,
      "Meanwhile": 7410,
      "Olymp": 7411,
      "([": 7412,
      "Ages": 7413,
      "Da": 7414,
      "Dick": 7415,
      "PE": 7416,
      "Rate": 7417,
      "_error": 7418,
      "cd": 7419,
      "hush": 7420,
      "sso": 7421,
      "scal": 7422,
      "uch": 7423,
      "unched": 7424,
      "agger": 7425,
      "whip": 7426,
      "proposed": 7427,
      "oldest": 7428,
      "ifically": 7429,
      "mob": 7430,
      "grayscale": 7431,
      "findings": 7432,
      "twitter": 7433,
      "employ": 7434,
      "Chur": 7435,
      "texture": 7436,
      "amounts": 7437,
      "brother": 7438,
      "universal": 7439,
      "woods": 7440,
      "greatly": 7441,
      "biting": 7442,
      "genius": 7443,
      "rigue": 7444,
      "maximize": 7445,
      "politics": 7446,
      "promote": 7447,
      "parallels": 7448,
      "pictures": 7449,
      "explanation": 7450,
      "inherent": 7451,
      "Position": 7452,
      "eerie": 7453,
      "cuisine": 7454,
      "smell": 7455,
      "adjac": 7456,
      "frastructure": 7457,
      "31": 7458,
      "79": 7459,
      "Bud": 7460,
      "Mer": 7461,
      "Py": 7462,
      "Rad": 7463,
      "Sch": 7464,
      "bart": 7465,
      "jung": 7466,
      "schema": 7467,
      "incoming": 7468,
      "asp": 7469,
      "rote": 7470,
      "uristic": 7471,
      "adop": 7472,
      "conce": 7473,
      "confl": 7474,
      "iridescent": 7475,
      "excess": 7476,
      "intent": 7477,
      "intrigue": 7478,
      "Invest": 7479,
      "dupl": 7480,
      "blind": 7481,
      "interval": 7482,
      "osaur": 7483,
      "defense": 7484,
      "125": 7485,
      "solved": 7486,
      "heading": 7487,
      "diagon": 7488,
      "Location": 7489,
      "register": 7490,
      "salt": 7491,
      "accountNumber": 7492,
      "ordered": 7493,
      "lara": 7494,
      "Select": 7495,
      "approachable": 7496,
      "weather_data": 7497,
      "traits": 7498,
      "Embr": 7499,
      "rolled": 7500,
      "describes": 7501,
      "seasoned": 7502,
      "electricity": 7503,
      "curl_": 7504,
      "consciousness": 7505,
      "prompt": 7506,
      "schedule": 7507,
      "Egyptian": 7508,
      "Pulsar": 7509,
      "Download": 7510,
      "algebra": 7511,
      "constraints": 7512,
      "Cred": 7513,
      "LO": 7514,
      "_str": 7515,
      "cows": 7516,
      "jah": 7517,
      "luminescent": 7518,
      "nings": 7519,
      "rors": 7520,
      "sche": 7521,
      "wand": 7522,
      "react": 7523,
      "stolen": 7524,
      "orious": 7525,
      "orche": 7526,
      "ales": 7527,
      "assign": 7528,
      "terminal": 7529,
      "west": 7530,
      "poet": 7531,
      "cling": 7532,
      "ops": 7533,
      "uded": 7534,
      "extend": 7535,
      "inputs": 7536,
      "errors": 7537,
      "parks": 7538,
      "trials": 7539,
      "manif": 7540,
      "carved": 7541,
      "criptions": 7542,
      "defines": 7543,
      "AndServe": 7544,
      "xture": 7545,
      "frag": 7546,
      "fragr": 7547,
      "requirements": 7548,
      "outputs": 7549,
      ")))": 7550,
      "died": 7551,
      "radiant": 7552,
      "stops": 7553,
      "insert_": 7554,
      "strip": 7555,
      "wheel": 7556,
      "emergency": 7557,
      "Redis": 7558,
      "psychological": 7559,
      "spoken": 7560,
      "COL": 7561,
      "Analyzer": 7562,
      "yielding": 7563,
      "Matrix": 7564,
      "ListenAndServe": 7565,
      "neatly": 7566,
      "DriverManager": 7567,
      "MariaDB": 7568,
      "Vector3D": 7569,
      "conventional": 7570,
      "480": 7571,
      "Br": 7572,
      "Daniel": 7573,
      "Ethan": 7574,
      "Jeff": 7575,
      "Ms": 7576,
      "Mir": 7577,
      "MENT": 7578,
      "TER": 7579,
      "_code": 7580,
      "bors": 7581,
      "dant": 7582,
      "oil": 7583,
      "pq": 7584,
      "rons": 7585,
      "tast": 7586,
      "ont": 7587,
      "removed": 7588,
      "alert": 7589,
      "lest": 7590,
      "secut": 7591,
      "champ": 7592,
      "unpredict": 7593,
      "riage": 7594,
      "neural": 7595,
      "nearest": 7596,
      "atever": 7597,
      "prow": 7598,
      "exquisite": 7599,
      "tricks": 7600,
      "mos": 7601,
      "suits": 7602,
      "intro": 7603,
      "canopy": 7604,
      "pray": 7605,
      "udes": 7606,
      "blings": 7607,
      "elusive": 7608,
      "owned": 7609,
      "ponder": 7610,
      "affic": 7611,
      "readLine": 7612,
      "responds": 7613,
      "dragon": 7614,
      "flame": 7615,
      "cols": 7616,
      "functionality": 7617,
      "listens": 7618,
      "breathe": 7619,
      "surreal": 7620,
      "pressed": 7621,
      "meditation": 7622,
      "programs": 7623,
      "exped": 7624,
      "Tra": 7625,
      "output_file": 7626,
      "FileReader": 7627,
      "javax": 7628,
      "finished": 7629,
      "packs": 7630,
      "influences": 7631,
      "burning": 7632,
      "bucketName": 7633,
      "interactive": 7634,
      "Month": 7635,
      "imagin": 7636,
      "consumed": 7637,
      "joining": 7638,
      "possibility": 7639,
      "corporate": 7640,
      "revolutionized": 7641,
      "Underneath": 7642,
      "philosophical": 7643,
      "strokes": 7644,
      "Bermud": 7645,
      "ophone": 7646,
      "replied": 7647,
      "darkest": 7648,
      "accommodate": 7649,
      "Alfred": 7650,
      "sanctuary": 7651,
      "Hyperlink": 7652,
      "Bermuda": 7653,
      "47": 7654,
      "Block": 7655,
      "Brown": 7656,
      "Cla": 7657,
      "Fin": 7658,
      "Jour": 7659,
      "Other": 7660,
      "Tar": 7661,
      "bid": 7662,
      "bathed": 7663,
      "cence": 7664,
      "fans": 7665,
      "hal": 7666,
      "oes": 7667,
      "phe": 7668,
      "uing": 7669,
      "wrote": 7670,
      "thunder": 7671,
      "repo": 7672,
      "toward": 7673,
      "loom": 7674,
      "consequences": 7675,
      "worry": 7676,
      "grant": 7677,
      "compar": 7678,
      "ultimately": 7679,
      "usement": 7680,
      "aterrestrial": 7681,
      "solitude": 7682,
      "subsequent": 7683,
      "pression": 7684,
      "balanced": 7685,
      "waterfall": 7686,
      "Most": 7687,
      "Products": 7688,
      "stell": 7689,
      "momentarily": 7690,
      "supporting": 7691,
      "radio": 7692,
      "commonly": 7693,
      "recipes": 7694,
      "pushing": 7695,
      "invite": 7696,
      "frequently": 7697,
      "bridges": 7698,
      "Maybe": 7699,
      "rustling": 7700,
      "access_token_secret": 7701,
      "failure": 7702,
      "Tools": 7703,
      "dotenv": 7704,
      "uncertainty": 7705,
      "chemistry": 7706,
      "Whether": 7707,
      "Binary": 7708,
      "E5": 7709,
      "Jerry": 7710,
      "Lim": 7711,
      "Port": 7712,
      "Sql": 7713,
      "_string": 7714,
      "_value": 7715,
      "batter": 7716,
      "eigen": 7717,
      "gem": 7718,
      "h2": 7719,
      "hang": 7720,
      "iate": 7721,
      "lens": 7722,
      "ranging": 7723,
      "sad": 7724,
      "tu": 7725,
      "tiles": 7726,
      "tho": 7727,
      "review": 7728,
      "leather": 7729,
      "coloss": 7730,
      "admit": 7731,
      "consume": 7732,
      "neut": 7733,
      "ami": 7734,
      "amazing": 7735,
      "evil": 7736,
      "Real": 7737,
      "worldly": 7738,
      "symp": 7739,
      "preci": 7740,
      "monarch": 7741,
      "Ensure": 7742,
      "brew": 7743,
      "lesson": 7744,
      "cheese": 7745,
      "singing": 7746,
      "Trump": 7747,
      "sorts": 7748,
      "remembered": 7749,
      "historian": 7750,
      "Johnson": 7751,
      "checking": 7752,
      "captured": 7753,
      "diesel": 7754,
      "iku": 7755,
      "touching": 7756,
      "ServerError": 7757,
      "pretty": 7758,
      "StatusInternal": 7759,
      "sumptions": 7760,
      "issue": 7761,
      "mutual": 7762,
      "revolutionary": 7763,
      "Return": 7764,
      "Finder": 7765,
      "consumer_key": 7766,
      "consumer_secret": 7767,
      "keras": 7768,
      "theorem": 7769,
      "mixture": 7770,
      "Musk": 7771,
      "puzzles": 7772,
      "shifting": 7773,
      "thousand": 7774,
      "persist": 7775,
      "relaxation": 7776,
      "cabin": 7777,
      "geometric": 7778,
      "gratitude": 7779,
      "Lyra": 7780,
      "StatusInternalServerError": 7781,
      ":**": 7782,
      "ASE": 7783,
      "Gather": 7784,
      "Hence": 7785,
      "Never": 7786,
      "Prom": 7787,
      "Ran": 7788,
      "Rout": 7789,
      "_2": 7790,
      "blog": 7791,
      "ebe": 7792,
      "fib": 7793,
      "gie": 7794,
      "ked": 7795,
      "oak": 7796,
      "rank": 7797,
      "rays": 7798,
      "skept": 7799,
      "}\"": 7800,
      "seven": 7801,
      "dealing": 7802,
      "degree": 7803,
      "lyrics": 7804,
      "beach": 7805,
      "convey": 7806,
      "ultural": 7807,
      "resize": 7808,
      "protagonist": 7809,
      "shines": 7810,
      "forming": 7811,
      "heritage": 7812,
      "cked": 7813,
      "dison": 7814,
      "monument": 7815,
      "underlying": 7816,
      "fileName": 7817,
      "renting": 7818,
      "married": 7819,
      "nextInt": 7820,
      "seeks": 7821,
      "trained": 7822,
      "190": 7823,
      "matters": 7824,
      "Until": 7825,
      "Loader": 7826,
      "netic": 7827,
      "depends": 7828,
      "calling": 7829,
      "Sea": 7830,
      "maintains": 7831,
      "Bucket": 7832,
      "Calculator": 7833,
      "confess": 7834,
      "burst": 7835,
      "**:": 7836,
      "Words": 7837,
      "nearly": 7838,
      "discounted": 7839,
      "concerns": 7840,
      "fantasy": 7841,
      "fiery": 7842,
      "Africa": 7843,
      "baker": 7844,
      "trucks": 7845,
      "halls": 7846,
      "vegetables": 7847,
      "Phoebe": 7848,
      "ENFP": 7849,
      "Document": 7850,
      "liquid": 7851,
      "dictionary": 7852,
      "aroma": 7853,
      "colossal": 7854,
      "'))": 7855,
      ".\\": 7856,
      "Did": 7857,
      "Lef": 7858,
      "Tay": 7859,
      "Win": 7860,
      "_by": 7861,
      "bled": 7862,
      "fits": 7863,
      "ka": 7864,
      "kno": 7865,
      "ologist": 7866,
      "pour": 7867,
      "scan": 7868,
      "sister": 7869,
      "tics": 7870,
      "thers": 7871,
      "inno": 7872,
      "invisible": 7873,
      "infrastructure": 7874,
      "anagram": 7875,
      "stages": 7876,
      "stadium": 7877,
      "ceed": 7878,
      "untold": 7879,
      "iring": 7880,
      "persever": 7881,
      "shirt": 7882,
      "astical": 7883,
      "crash": 7884,
      "icked": 7885,
      "observed": 7886,
      "buying": 7887,
      "ventured": 7888,
      "probably": 7889,
      "missions": 7890,
      "face_": 7891,
      "tests": 7892,
      "suming": 7893,
      "cynic": 7894,
      "webpage": 7895,
      "facilities": 7896,
      "Door": 7897,
      "amongst": 7898,
      "Collection": 7899,
      "swing": 7900,
      "photograph": 7901,
      "Edgar": 7902,
      "Salaries": 7903,
      "puls": 7904,
      "teaching": 7905,
      "lowercase": 7906,
      "Maintain": 7907,
      "recognition": 7908,
      "limits": 7909,
      "increasingly": 7910,
      "Smith": 7911,
      "suddenly": 7912,
      "elasticsearch": 7913,
      "Graham": 7914,
      "mundane": 7915,
      "adventurous": 7916,
      "insurance": 7917,
      "coordin": 7918,
      "ingenuity": 7919,
      "showcasing": 7920,
      "/∂": 7921,
      "Cent": 7922,
      "Dar": 7923,
      "Ell": 7924,
      "KEN": 7925,
      "Lower": 7926,
      "Laugh": 7927,
      "Mad": 7928,
      "O_": 7929,
      "Side": 7930,
      "Science": 7931,
      "Ze": 7932,
      "[(": 7933,
      "_tweets": 7934,
      "n1": 7935,
      "ng": 7936,
      "nice": 7937,
      "rices": 7938,
      "removing": 7939,
      "itors": 7940,
      "assumptions": 7941,
      "metric": 7942,
      "owl": 7943,
      "aded": 7944,
      "losing": 7945,
      "abbre": 7946,
      "aining": 7947,
      "illu": 7948,
      "dule": 7949,
      "nore": 7950,
      "acknow": 7951,
      "elf": 7952,
      "elabor": 7953,
      "brand": 7954,
      "ipedia": 7955,
      "underwater": 7956,
      "filepath": 7957,
      "trie": 7958,
      "humility": 7959,
      "folds": 7960,
      "Although": 7961,
      "glance": 7962,
      "Draw": 7963,
      "tones": 7964,
      "template": 7965,
      "digest": 7966,
      "sunrise": 7967,
      "purposes": 7968,
      "lengths": 7969,
      "last_name": 7970,
      "director": 7971,
      "Modern": 7972,
      "decades": 7973,
      "Yours": 7974,
      "displayed": 7975,
      "PrintWriter": 7976,
      "influential": 7977,
      "\"])": 7978,
      "gentleman": 7979,
      "Discus": 7980,
      "explaining": 7981,
      "struggles": 7982,
      "composition": 7983,
      "observation": 7984,
      "mergeSort": 7985,
      "enthusiasts": 7986,
      "Absolutely": 7987,
      "fantastical": 7988,
      "leadership": 7989,
      "easier": 7990,
      "metaphors": 7991,
      "quarters": 7992,
      "tangible": 7993,
      "flexibility": 7994,
      "intricacies": 7995,
      "Utilize": 7996,
      "Ranking": 7997,
      "Left": 7998,
      "abbrevi": 7999,
      "Beneath": 8000,
      "Cast": 8001,
      "Catherine": 8002,
      "OK": 8003,
      "Pan": 8004,
      "Rows": 8005,
      "SF": 8006,
      "Ton": 8007,
      "Vars": 8008,
      "_number": 8009,
      "_size": 8010,
      "_TO": 8011,
      "baking": 8012,
      "cents": 8013,
      "caf": 8014,
      "giant": 8015,
      "jpg": 8016,
      "ole": 8017,
      "saves": 8018,
      "thinks": 8019,
      "inch": 8020,
      "renov": 8021,
      "icit": 8022,
      "sey": 8023,
      "cel": 8024,
      "iders": 8025,
      "uncover": 8026,
      "ulner": 8027,
      "ayne": 8028,
      "traffic": 8029,
      "amusement": 8030,
      "poch": 8031,
      "cluster": 8032,
      "tive": 8033,
      "blending": 8034,
      "curren": 8035,
      "angles": 8036,
      "extension": 8037,
      "gods": 8038,
      "google": 8039,
      "internal": 8040,
      "printStack": 8041,
      "drama": 8042,
      "correspond": 8043,
      "mankind": 8044,
      "brewing": 8045,
      "guy": 8046,
      "nerv": 8047,
      "containers": 8048,
      "volcan": 8049,
      "expense": 8050,
      "summary": 8051,
      "castle": 8052,
      "grounds": 8053,
      "spectral": 8054,
      "steel": 8055,
      "Gogh": 8056,
      "displaying": 8057,
      "Clive": 8058,
      "digits": 8059,
      "offered": 8060,
      "explored": 8061,
      "lively": 8062,
      "arrival": 8063,
      "haiku": 8064,
      "minimize": 8065,
      "OutputStream": 8066,
      "photosynthesis": 8067,
      "bulb": 8068,
      "dinosaur": 8069,
      "authors": 8070,
      "rupted": 8071,
      "attractions": 8072,
      "USA": 8073,
      "blurred": 8074,
      "extraterrestrial": 8075,
      "prowess": 8076,
      "printStackTrace": 8077,
      "'-": 8078,
      ")!": 8079,
      "./": 8080,
      "68": 8081,
      "?)": 8082,
      "CV": 8083,
      "Edison": 8084,
      "Mil": 8085,
      "Oc": 8086,
      "Power": 8087,
      "Rel": 8088,
      "TV": 8089,
      "border": 8090,
      "dive": 8091,
      "epoch": 8092,
      "gaz": 8093,
      "md": 8094,
      "n2": 8095,
      "nical": 8096,
      "oo": 8097,
      "sword": 8098,
      "wre": 8099,
      "wilder": 8100,
      "yester": 8101,
      "ata": 8102,
      "ropol": 8103,
      "meat": 8104,
      "beast": 8105,
      "verdant": 8106,
      "irts": 8107,
      "rive": 8108,
      "whom": 8109,
      "prove": 8110,
      "trag": 8111,
      "plate": 8112,
      "mod": 8113,
      "shining": 8114,
      "comment": 8115,
      "bris": 8116,
      "criter": 8117,
      "backs": 8118,
      "argue": 8119,
      "123": 8120,
      "subst": 8121,
      "trem": 8122,
      "transition": 8123,
      "musician": 8124,
      "gestures": 8125,
      "flowing": 8126,
      "policy": 8127,
      "API_KEY": 8128,
      "brook": 8129,
      "inserted": 8130,
      "interests": 8131,
      "destiny": 8132,
      "younger": 8133,
      "improving": 8134,
      "ronic": 8135,
      "Command": 8136,
      "WebScraper": 8137,
      "brighter": 8138,
      "importantly": 8139,
      "forgettable": 8140,
      "intrigued": 8141,
      "evolve": 8142,
      "sentiment_": 8143,
      "stroke": 8144,
      "----------------": 8145,
      "established": 8146,
      "Leonard": 8147,
      "shelf": 8148,
      "gleaming": 8149,
      "Maggie": 8150,
      "Paul": 8151,
      "affection": 8152,
      "Simplify": 8153,
      "elegance": 8154,
      "Elysium": 8155,
      "voyage": 8156,
      "oriented": 8157,
      "pottery": 8158,
      "stellar": 8159,
      "'(": 8160,
      "Bur": 8161,
      "Bra": 8162,
      "Er": 8163,
      "Ever": 8164,
      "GP": 8165,
      "Vis": 8166,
      "WIT": 8167,
      "_year": 8168,
      "`:": 8169,
      "dressed": 8170,
      "eating": 8171,
      "mart": 8172,
      "pink": 8173,
      "incess": 8174,
      "eral": 8175,
      "recover": 8176,
      "alled": 8177,
      "toy": 8178,
      "enty": 8179,
      "forced": 8180,
      "coast": 8181,
      "ligh": 8182,
      "riad": 8183,
      "reser": 8184,
      "resort": 8185,
      "whatever": 8186,
      "proposal": 8187,
      "pod": 8188,
      "illusions": 8189,
      "evoke": 8190,
      "foods": 8191,
      "buttons": 8192,
      "specul": 8193,
      "find_": 8194,
      "engaged": 8195,
      "chose": 8196,
      "---": 8197,
      "Chines": 8198,
      "Withdraw": 8199,
      "paints": 8200,
      "launched": 8201,
      "cycles": 8202,
      "included": 8203,
      "fluid": 8204,
      "forests": 8205,
      "drives": 8206,
      "Allow": 8207,
      "pyramid": 8208,
      "Spec": 8209,
      "fourth": 8210,
      "invited": 8211,
      "updates": 8212,
      "occurs": 8213,
      "frequencies": 8214,
      "taller": 8215,
      "slice": 8216,
      "suggested": 8217,
      "suspect": 8218,
      "stretched": 8219,
      "observant": 8220,
      "attempt": 8221,
      "Operation": 8222,
      "Simplifying": 8223,
      "decrease": 8224,
      "portray": 8225,
      "revelation": 8226,
      "Golden": 8227,
      "Frida": 8228,
      "bartender": 8229,
      "Taylor": 8230,
      "ropolis": 8231,
      "Chinese": 8232,
      "(?,": 8233,
      "350": 8234,
      "Bat": 8235,
      "Fol": 8236,
      "Failed": 8237,
      "Goth": 8238,
      "Have": 8239,
      "Mind": 8240,
      "OUT": 8241,
      "RA": 8242,
      "Rain": 8243,
      "T_": 8244,
      "Tw": 8245,
      "freq": 8246,
      "hone": 8247,
      "maps": 8248,
      "pale": 8249,
      "ray": 8250,
      "sci": 8251,
      "sending": 8252,
      "till": 8253,
      "uine": 8254,
      "warts": 8255,
      "orry": 8256,
      "depression": 8257,
      "veil": 8258,
      "teen": 8259,
      "click": 8260,
      "myriad": 8261,
      "oppos": 8262,
      "ckets": 8263,
      "epis": 8264,
      "Thor": 8265,
      "returning": 8266,
      "izens": 8267,
      "interview": 8268,
      "INTE": 8269,
      "first_name": 8270,
      "capturing": 8271,
      "buys": 8272,
      "buzz": 8273,
      "instant": 8274,
      "attle": 8275,
      "sentiments": 8276,
      "broke": 8277,
      "rolls": 8278,
      "push_back": 8279,
      "your_username": 8280,
      "property": 8281,
      "touched": 8282,
      "rising": 8283,
      "Prime": 8284,
      "OpenCV": 8285,
      "organization": 8286,
      "pulled": 8287,
      "Luke": 8288,
      "fairies": 8289,
      "collected": 8290,
      "Forest": 8291,
      "threats": 8292,
      "throat": 8293,
      "gradually": 8294,
      "nutr": 8295,
      "priorit": 8296,
      "hesit": 8297,
      "independent": 8298,
      "TrieNode": 8299,
      "cynicism": 8300,
      "-=": 8301,
      "69": 8302,
      "=?": 8303,
      "Again": 8304,
      "CA": 8305,
      "DN": 8306,
      "Dy": 8307,
      "EL": 8308,
      "Ella": 8309,
      "Grow": 8310,
      "Hog": 8311,
      "IV": 8312,
      "LU": 8313,
      "Museum": 8314,
      "RAN": 8315,
      "San": 8316,
      "Sus": 8317,
      "Suc": 8318,
      "Van": 8319,
      "Zep": 8320,
      "fought": 8321,
      "gad": 8322,
      "px": 8323,
      "tune": 8324,
      "wake": 8325,
      "thouse": 8326,
      "theater": 8327,
      "icine": 8328,
      "sees": 8329,
      "ada": 8330,
      "unyielding": 8331,
      "irk": 8332,
      "aped": 8333,
      "prote": 8334,
      "proportion": 8335,
      "exotic": 8336,
      "siblings": 8337,
      "lling": 8338,
      "clarity": 8339,
      "tie": 8340,
      "tide": 8341,
      "dore": 8342,
      "impressive": 8343,
      "numbered": 8344,
      "(\":": 8345,
      "Record": 8346,
      "interconnected": 8347,
      "passes": 8348,
      "thanks": 8349,
      "listener": 8350,
      "Ent": 8351,
      "pride": 8352,
      "fract": 8353,
      "evenly": 8354,
      "glory": 8355,
      "testants": 8356,
      "cynical": 8357,
      "Arc": 8358,
      "breaks": 8359,
      "writers": 8360,
      "steam": 8361,
      "referred": 8362,
      "alongside": 8363,
      "libraries": 8364,
      "etern": 8365,
      "sophist": 8366,
      "Elijah": 8367,
      "panel": 8368,
      "leaning": 8369,
      "agraph": 8370,
      "seasons": 8371,
      "exercises": 8372,
      "battles": 8373,
      "Fogg": 8374,
      "float64": 8375,
      "assumes": 8376,
      "scenarios": 8377,
      "ResultSet": 8378,
      "shelves": 8379,
      "magnitude": 8380,
      "neighborhood": 8381,
      "twinkle": 8382,
      "illuminating": 8383,
      "flickering": 8384,
      "lonely": 8385,
      "components": 8386,
      "JOIN": 8387,
      "admiration": 8388,
      "excellent": 8389,
      "Embrace": 8390,
      "criteria": 8391,
      "INTEGER": 8392,
      "'),": 8393,
      "2B": 8394,
      "43": 8395,
      "Bad": 8396,
      "Cell": 8397,
      "Civil": 8398,
      "Frequ": 8399,
      "Grand": 8400,
      "Host": 8401,
      "Ira": 8402,
      "Mand": 8403,
      "Pen": 8404,
      "Ren": 8405,
      "Wester": 8406,
      "bcrypt": 8407,
      "dles": 8408,
      "gres": 8409,
      "hus": 8410,
      "hast": 8411,
      "hund": 8412,
      "kne": 8413,
      "mansion": 8414,
      "pable": 8415,
      "pstmt": 8416,
      "tends": 8417,
      "uated": 8418,
      "ufact": 8419,
      "v2": 8420,
      "incorrect": 8421,
      "icon": 8422,
      "ented": 8423,
      "cohol": 8424,
      "concent": 8425,
      "teeming": 8426,
      "romantic": 8427,
      "inton": 8428,
      "Indu": 8429,
      "noble": 8430,
      "nology": 8431,
      "timeline": 8432,
      "Repository": 8433,
      "prefix": 8434,
      "trigg": 8435,
      "workout": 8436,
      "Expl": 8437,
      "header": 8438,
      "coverage": 8439,
      "mindfulness": 8440,
      "highlighting": 8441,
      "[];": 8442,
      "Join": 8443,
      "facilit": 8444,
      "anni": 8445,
      "randint": 8446,
      "Secre": 8447,
      "representation": 8448,
      "storms": 8449,
      "arrive": 8450,
      "hyper": 8451,
      "cube": 8452,
      "ambition": 8453,
      "Subject": 8454,
      "screens": 8455,
      "article": 8456,
      "resonate": 8457,
      "briefly": 8458,
      "attempts": 8459,
      "scholars": 8460,
      "Introduction": 8461,
      "blooming": 8462,
      "transcends": 8463,
      "cylindrical": 8464,
      "Celest": 8465,
      "elephant": 8466,
      "evaluate": 8467,
      "Gandhi": 8468,
      "sauce": 8469,
      "reminiscent": 8470,
      "saxophone": 8471,
      "Jefferson": 8472,
      "SFX": 8473,
      "Tonight": 8474,
      "Iraq": 8475,
      "95": 8476,
      "BY": 8477,
      "EST": 8478,
      "Fro": 8479,
      "Lin": 8480,
      "MB": 8481,
      "Put": 8482,
      "Ye": 8483,
      "bat": 8484,
      "cpu": 8485,
      "eases": 8486,
      "epest": 8487,
      "fierce": 8488,
      "hill": 8489,
      "zen": 8490,
      "ini": 8491,
      "ouched": 8492,
      "escap": 8493,
      "lemon": 8494,
      "aspir": 8495,
      "robust": 8496,
      "hey": 8497,
      "chapter": 8498,
      "veins": 8499,
      "unforgettable": 8500,
      "ulations": 8501,
      "umes": 8502,
      "trapped": 8503,
      "amaz": 8504,
      "ambit": 8505,
      "shore": 8506,
      "crete": 8507,
      "aku": 8508,
      "opin": 8509,
      "novels": 8510,
      "diseases": 8511,
      "phins": 8512,
      "enclo": 8513,
      "Hey": 8514,
      "descriptions": 8515,
      "printing": 8516,
      "productivity": 8517,
      "observing": 8518,
      "Assuming": 8519,
      "smiles": 8520,
      "256": 8521,
      "liness": 8522,
      "muscle": 8523,
      "generation": 8524,
      "reasons": 8525,
      "axios": 8526,
      "rounded": 8527,
      "Research": 8528,
      "flows": 8529,
      "developing": 8530,
      "appeal": 8531,
      "inserts": 8532,
      "futuristic": 8533,
      "destroy": 8534,
      "moral": 8535,
      "smoke": 8536,
      "stopped": 8537,
      "routine": 8538,
      "magician": 8539,
      "ANE": 8540,
      "fortun": 8541,
      "trips": 8542,
      "heavily": 8543,
      "organic": 8544,
      "WebSocket": 8545,
      "Sales": 8546,
      "purchased": 8547,
      "Present": 8548,
      "subjects": 8549,
      "meaningful": 8550,
      "smartphone": 8551,
      "meticulously": 8552,
      "achieved": 8553,
      "accidentally": 8554,
      "Wikipedia": 8555,
      "delicious": 8556,
      "inquiry": 8557,
      "glimpse": 8558,
      "composer": 8559,
      "Machine": 8560,
      "advantage": 8561,
      "Western": 8562,
      "\"+": 8563,
      "([]": 8564,
      "140": 8565,
      "Pat": 8566,
      "Sing": 8567,
      "Sher": 8568,
      "Sup": 8569,
      "Ter": 8570,
      "Wil": 8571,
      "bows": 8572,
      "clop": 8573,
      "kid": 8574,
      "png": 8575,
      "vy": 8576,
      "vulner": 8577,
      "wt": 8578,
      "seating": 8579,
      "deepest": 8580,
      "chur": 8581,
      "unlikely": 8582,
      "usk": 8583,
      "traverse": 8584,
      "quad": 8585,
      "indicate": 8586,
      "grab": 8587,
      "oppon": 8588,
      "opens": 8589,
      "spher": 8590,
      "compile": 8591,
      "datetime": 8592,
      "spection": 8593,
      "input_file": 8594,
      "goods": 8595,
      "desper": 8596,
      "predat": 8597,
      "paragraph": 8598,
      "airline": 8599,
      "ideo": 8600,
      "eyed": 8601,
      "ritual": 8602,
      "installed": 8603,
      "operational": 8604,
      "visions": 8605,
      "1960": 8606,
      "loading": 8607,
      "processed": 8608,
      "Ada": 8609,
      "denote": 8610,
      "presented": 8611,
      "Arg": 8612,
      "farm": 8613,
      "Steve": 8614,
      "healthcare": 8615,
      "Room": 8616,
      "commands": 8617,
      "144": 8618,
      "genuine": 8619,
      "traditions": 8620,
      "cultiv": 8621,
      "Evidence3": 8622,
      "reminding": 8623,
      "ruins": 8624,
      "hydr": 8625,
      "Comm": 8626,
      "minimal": 8627,
      "described": 8628,
      "matching": 8629,
      "steady": 8630,
      "ieval": 8631,
      "articulate": 8632,
      "collap": 8633,
      "television": 8634,
      "telephone": 8635,
      "comforting": 8636,
      "suspense": 8637,
      "stretching": 8638,
      "atomic": 8639,
      "advocate": 8640,
      "crisp": 8641,
      "Public": 8642,
      "YOUR": 8643,
      "weapon": 8644,
      "linguistic": 8645,
      "balloons": 8646,
      "ceremony": 8647,
      "amenities": 8648,
      "occurrences": 8649,
      "Street": 8650,
      "Churchill": 8651,
      "Traversal": 8652,
      "Batman": 8653,
      "Hogwarts": 8654,
      "sophistication": 8655,
      ")}": 8656,
      "8000": 8657,
      "Bit": 8658,
      "Big": 8659,
      "Long": 8660,
      "Sat": 8661,
      "Singly": 8662,
      "cp": 8663,
      "egg": 8664,
      "fusion": 8665,
      "nes": 8666,
      "pill": 8667,
      "pies": 8668,
      "sir": 8669,
      "wound": 8670,
      "stability": 8671,
      "esp": 8672,
      "assure": 8673,
      "enters": 8674,
      "ceiling": 8675,
      "liber": 8676,
      "utor": 8677,
      "idential": 8678,
      "rim": 8679,
      "terri": 8680,
      "absur": 8681,
      "absolute": 8682,
      "ressing": 8683,
      "pert": 8684,
      "ifies": 8685,
      "embro": 8686,
      "berts": 8687,
      "epic": 8688,
      "comparing": 8689,
      "disappear": 8690,
      "otherworldly": 8691,
      "iew": 8692,
      "centric": 8693,
      "distingu": 8694,
      "\"));": 8695,
      "lists": 8696,
      "Chapter": 8697,
      "applications": 8698,
      "subs": 8699,
      "skilled": 8700,
      "instit": 8701,
      "operators": 8702,
      "Come": 8703,
      "runs": 8704,
      "characteristic": 8705,
      "mighty": 8706,
      "complexities": 8707,
      "squares": 8708,
      "resting": 8709,
      "postgres": 8710,
      "millions": 8711,
      "Does": 8712,
      "destin": 8713,
      "statements": 8714,
      "Roberts": 8715,
      "striking": 8716,
      "utilize": 8717,
      "iveness": 8718,
      "originally": 8719,
      "reveals": 8720,
      "debate": 8721,
      "astronaut": 8722,
      "resonates": 8723,
      "regarding": 8724,
      "Quantity": 8725,
      "shopping": 8726,
      "prepareStatement": 8727,
      "Photo": 8728,
      "exceed": 8729,
      "Holmes": 8730,
      "grateful": 8731,
      "depicted": 8732,
      "accomplishments": 8733,
      "seamlessly": 8734,
      "anthropology": 8735,
      "Factorial": 8736,
      "ACCESS_TO": 8737,
      "Azure": 8738,
      "jungle": 8739,
      "Ellen": 8740,
      "tragic": 8741,
      "opposite": 8742,
      "SinglyLinkedList": 8743,
      "absurd": 8744,
      "ACCESS_TOKEN": 8745,
      "\"$": 8746,
      "'?": 8747,
      "01": 8748,
      "57": 8749,
      "AUT": 8750,
      "BO": 8751,
      "Card": 8752,
      "Est": 8753,
      "Emer": 8754,
      "Od": 8755,
      "Sleep": 8756,
      "Vera": 8757,
      "gust": 8758,
      "hier": 8759,
      "hills": 8760,
      "jump": 8761,
      "killed": 8762,
      "parch": 8763,
      "wet": 8764,
      "xml": 8765,
      "ouded": 8766,
      "allocation": 8767,
      "bearing": 8768,
      "agu": 8769,
      "ulous": 8770,
      "ria": 8771,
      "umen": 8772,
      "abstract": 8773,
      "otion": 8774,
      "tracing": 8775,
      "teams": 8776,
      "modif": 8777,
      "Insufficient": 8778,
      "avel": 8779,
      "noise": 8780,
      "compact": 8781,
      "compute": 8782,
      "extended": 8783,
      "pressive": 8784,
      "throne": 8785,
      "encaps": 8786,
      "Heart": 8787,
      "overhead": 8788,
      "book_id": 8789,
      "carbon": 8790,
      "Config": 8791,
      "observer": 8792,
      "greg": 8793,
      "wordCount": 8794,
      "breed": 8795,
      "nextLine": 8796,
      "joined": 8797,
      "longing": 8798,
      "visits": 8799,
      "cinem": 8800,
      "matrices": 8801,
      "Firstly": 8802,
      "domain": 8803,
      "meta": 8804,
      "appearing": 8805,
      "servation": 8806,
      "status_code": 8807,
      "colorful": 8808,
      "historic": 8809,
      "sleek": 8810,
      "reflected": 8811,
      "holder": 8812,
      "INTJ": 8813,
      "filtering": 8814,
      "arrives": 8815,
      "ENDCONTEXT": 8816,
      "biological": 8817,
      "transforming": 8818,
      "Subtract": 8819,
      "economics": 8820,
      "mistakes": 8821,
      "BEGINCONTEXT": 8822,
      "behaviors": 8823,
      "climbs": 8824,
      "exhilar": 8825,
      "survive": 8826,
      "parallel": 8827,
      "comprehend": 8828,
      "occupied": 8829,
      "embarked": 8830,
      "sustainability": 8831,
      "capitalization": 8832,
      "mortal": 8833,
      "German": 8834,
      "Options": 8835,
      "haunted": 8836,
      "refreshing": 8837,
      "perseverance": 8838,
      "Discuss": 8839,
      "Success": 8840,
      "Argument": 8841,
      "Bitcoin": 8842,
      "Cars": 8843,
      "FF": 8844,
      "Fall": 8845,
      "Mex": 8846,
      "Narr": 8847,
      "Shad": 8848,
      "Sprintf": 8849,
      "Tit": 8850,
      "fond": 8851,
      "gig": 8852,
      "p1": 8853,
      "p2": 8854,
      "rs": 8855,
      "yoga": 8856,
      "inorder": 8857,
      "reaction": 8858,
      "ensures": 8859,
      "icies": 8860,
      "ille": 8861,
      "lored": 8862,
      "irls": 8863,
      "agg": 8864,
      "ulter": 8865,
      "weaving": 8866,
      "lder": 8867,
      "plus": 8868,
      "sopher": 8869,
      "posure": 8870,
      "dusty": 8871,
      "nose": 8872,
      "bless": 8873,
      "compl": 8874,
      "Thanks": 8875,
      "Stand": 8876,
      "icking": 8877,
      "dying": 8878,
      "atcher": 8879,
      "sketch": 8880,
      "founded": 8881,
      "friendships": 8882,
      "differences": 8883,
      "WriteHeader": 8884,
      "Decode": 8885,
      "Deposit": 8886,
      "expansion": 8887,
      "diameter": 8888,
      "connection_string": 8889,
      "purple": 8890,
      "index_name": 8891,
      "regions": 8892,
      "squir": 8893,
      "viewers": 8894,
      "bitter": 8895,
      "genres": 8896,
      "swift": 8897,
      "referring": 8898,
      "layout": 8899,
      "investing": 8900,
      "confir": 8901,
      "fascinated": 8902,
      "respectively": 8903,
      "beds": 8904,
      "structured": 8905,
      "clearly": 8906,
      "freely": 8907,
      "contributing": 8908,
      "detailing": 8909,
      "circles": 8910,
      "implementing": 8911,
      "biography": 8912,
      "Initially": 8913,
      "profession": 8914,
      "zoo": 8915,
      "climbing": 8916,
      "bullet": 8917,
      "spots": 8918,
      "Apply": 8919,
      "Understanding": 8920,
      "Default": 8921,
      "gravit": 8922,
      "migr": 8923,
      "demonstrating": 8924,
      "galaxy": 8925,
      "preserving": 8926,
      "Memcached": 8927,
      "compassionate": 8928,
      "administration": 8929,
      "BankAccount": 8930,
      "Martin": 8931,
      "couple": 8932,
      "University": 8933,
      "comedy": 8934,
      "mischiev": 8935,
      "prominent": 8936,
      "constellations": 8937,
      "Robin": 8938,
      "elaborate": 8939,
      "/(": 8940,
      "71": 8941,
      "DENT": 8942,
      "East": 8943,
      "Fast": 8944,
      "Hu": 8945,
      "LI": 8946,
      "Non": 8947,
      "Sk": 8948,
      "Spr": 8949,
      "dil": 8950,
      "dread": 8951,
      "fade": 8952,
      "lur": 8953,
      "rides": 8954,
      "waste": 8955,
      "inform": 8956,
      "infl": 8957,
      "ero": 8958,
      "onder": 8959,
      "repl": 8960,
      "atop": 8961,
      "isy": 8962,
      "entering": 8963,
      "beams": 8964,
      "loving": 8965,
      "consecut": 8966,
      "resc": 8967,
      "reshold": 8968,
      "quit": 8969,
      "ivative": 8970,
      "strict": 8971,
      "pra": 8972,
      "yours": 8973,
      "spreading": 8974,
      "herbs": 8975,
      "abled": 8976,
      "dates": 8977,
      "thrilled": 8978,
      "desk": 8979,
      "posing": 8980,
      "addresses": 8981,
      "prem": 8982,
      "charged": 8983,
      "counting": 8984,
      "buf": 8985,
      "createTable": 8986,
      "test_": 8987,
      "diam": 8988,
      "AIQA": 8989,
      "Adding": 8990,
      "Lost": 8991,
      "childhood": 8992,
      "deployment": 8993,
      "callback": 8994,
      "hara": 8995,
      "ggie": 8996,
      "finance": 8997,
      "wore": 8998,
      "truths": 8999,
      "conversational": 9000,
      "grandfather": 9001,
      "Marie": 9002,
      "gorilla": 9003,
      "confusion": 9004,
      "fortune": 9005,
      "Evidence0": 9006,
      "committed": 9007,
      "engineer": 9008,
      "extracts": 9009,
      "selecting": 9010,
      "banana": 9011,
      "astrological": 9012,
      "melod": 9013,
      "distribute": 9014,
      "articles": 9015,
      "emphasis": 9016,
      "titled": 9017,
      "sacred": 9018,
      "Physical": 9019,
      "farewell": 9020,
      "Multip": 9021,
      "renewed": 9022,
      "foliage": 9023,
      "stalline": 9024,
      "temperatures": 9025,
      "dataset": 9026,
      "overwhelming": 9027,
      "Radius": 9028,
      "Credentials": 9029,
      "manifest": 9030,
      "neutral": 9031,
      "DNA": 9032,
      "\"<": 9033,
      ">\"": 9034,
      ">\";": 9035,
      "BER": 9036,
      "Far": 9037,
      "Pers": 9038,
      "Sa": 9039,
      "Video": 9040,
      "Wait": 9041,
      "pitch": 9042,
      "tum": 9043,
      "√(": 9044,
      "rely": 9045,
      "ato": 9046,
      "stumbled": 9047,
      "toString": 9048,
      "rog": 9049,
      "devi": 9050,
      "decode": 9051,
      "forged": 9052,
      "codes": 9053,
      "terror": 9054,
      "nels": 9055,
      "wears": 9056,
      "resistance": 9057,
      "residents": 9058,
      "perpet": 9059,
      "ifier": 9060,
      "dome": 9061,
      "igning": 9062,
      "rence": 9063,
      "awk": 9064,
      "discer": 9065,
      "bravery": 9066,
      "odb": 9067,
      "Toby": 9068,
      "prey": 9069,
      "previously": 9070,
      "texts": 9071,
      "survey": 9072,
      "Traverse": 9073,
      "powered": 9074,
      "size_t": 9075,
      "harm": 9076,
      "grows": 9077,
      "showcase": 9078,
      "untouched": 9079,
      "arrays": 9080,
      "14159": 9081,
      "closely": 9082,
      "crystalline": 9083,
      "buried": 9084,
      "Spider": 9085,
      "17th": 9086,
      "mirrors": 9087,
      "frequent": 9088,
      "males": 9089,
      "ambiance": 9090,
      "borrow": 9091,
      "wrapped": 9092,
      "fetching": 9093,
      "focuses": 9094,
      "consistent": 9095,
      "sensation": 9096,
      "rupt": 9097,
      "roads": 9098,
      "Interest": 9099,
      "regardless": 9100,
      "originated": 9101,
      "Michio": 9102,
      "mongodb": 9103,
      "chicken": 9104,
      "flip": 9105,
      "authentic": 9106,
      "Grade": 9107,
      "Germany": 9108,
      "VERS": 9109,
      "labyrinthine": 9110,
      "preparation": 9111,
      "uppercase": 9112,
      "Physics": 9113,
      "territories": 9114,
      "daughter": 9115,
      "Australia": 9116,
      "Gentlemen": 9117,
      "serenity": 9118,
      "mobile": 9119,
      "Monthly": 9120,
      "Celestia": 9121,
      ":',": 9122,
      "<-": 9123,
      "Campaign": 9124,
      "Full": 9125,
      "Hill": 9126,
      "Labor": 9127,
      "MO": 9128,
      "Mal": 9129,
      "National": 9130,
      "PH": 9131,
      "QU": 9132,
      "df": 9133,
      "fif": 9134,
      "fers": 9135,
      "hiding": 9136,
      "kg": 9137,
      "nit": 9138,
      "rating": 9139,
      "sper": 9140,
      "tat": 9141,
      "~,": 9142,
      "anas": 9143,
      "reactions": 9144,
      "stuff": 9145,
      "asant": 9146,
      "acle": 9147,
      "lime": 9148,
      "ads": 9149,
      "los": 9150,
      "rist": 9151,
      "neuro": 9152,
      "abys": 9153,
      "quired": 9154,
      "indul": 9155,
      "poetic": 9156,
      "club": 9157,
      "aka": 9158,
      "spider": 9159,
      "getConnection": 9160,
      "disappeared": 9161,
      "calories": 9162,
      "therefore": 9163,
      "Ange": 9164,
      "Social": 9165,
      "drag": 9166,
      "manufact": 9167,
      "Change": 9168,
      "Plus": 9169,
      "films": 9170,
      "planes": 9171,
      "wellness": 9172,
      "treasures": 9173,
      "chatbot": 9174,
      "Beh": 9175,
      "depicting": 9176,
      "combines": 9177,
      "grown": 9178,
      "lifetime": 9179,
      "Quite": 9180,
      "univers": 9181,
      "validation": 9182,
      "barri": 9183,
      "legal": 9184,
      "receives": 9185,
      "projects": 9186,
      "pursuits": 9187,
      "agedy": 9188,
      "spraw": 9189,
      "container_name": 9190,
      "slumber": 9191,
      "OpenSearch": 9192,
      "Edward": 9193,
      "wrap": 9194,
      "encouraging": 9195,
      "worthy": 9196,
      "explained": 9197,
      "celebrate": 9198,
      "observations": 9199,
      "motivation": 9200,
      "incorporate": 9201,
      "ascending": 9202,
      "demonstrates": 9203,
      "contemplation": 9204,
      "cylinder": 9205,
      "Population": 9206,
      "intuitive": 9207,
      "interpreting": 9208,
      "convenience": 9209,
      "MAX": 9210,
      "Scott": 9211,
      "Detective": 9212,
      "comparison": 9213,
      "pulsating": 9214,
      "Industri": 9215,
      "Sherlock": 9216,
      "!==": 9217,
      "97": 9218,
      "Aur": 9219,
      "Bir": 9220,
      "Cross": 9221,
      "Cry": 9222,
      "Cultural": 9223,
      "DAY": 9224,
      "Echo": 9225,
      "Give": 9226,
      "Iter": 9227,
      "Pic": 9228,
      "_sort": 9229,
      "`)": 9230,
      "camp": 9231,
      "dances": 9232,
      "dazz": 9233,
      "dusk": 9234,
      "fencing": 9235,
      "gaming": 9236,
      "lake": 9237,
      "march": 9238,
      "tread": 9239,
      "yer": 9240,
      "ype": 9241,
      "zil": 9242,
      "oft": 9243,
      "islands": 9244,
      "chand": 9245,
      "limer": 9246,
      "romance": 9247,
      "intended": 9248,
      "sizes": 9249,
      "akers": 9250,
      "compress": 9251,
      "bras": 9252,
      "odds": 9253,
      "applying": 9254,
      "affair": 9255,
      "intersection": 9256,
      "desert": 9257,
      "fles": 9258,
      "distur": 9259,
      "127": 9260,
      "warming": 9261,
      "Child": 9262,
      "Prov": 9263,
      "marriage": 9264,
      "nament": 9265,
      "relative": 9266,
      "medieval": 9267,
      "Adam": 9268,
      "Adrian": 9269,
      "performed": 9270,
      "grandmother": 9271,
      "goodbye": 9272,
      "Oranges": 9273,
      "TextBox": 9274,
      "check_": 9275,
      "contributed": 9276,
      "Monday": 9277,
      "frontier": 9278,
      "sparkle": 9279,
      "wonderful": 9280,
      "habits": 9281,
      "rhythmic": 9282,
      "downloaded": 9283,
      "shoes": 9284,
      "Luci": 9285,
      "purchasing": 9286,
      "stern": 9287,
      "evolving": 9288,
      "debt": 9289,
      "cleaning": 9290,
      "drops": 9291,
      "enhancing": 9292,
      "mythical": 9293,
      "About": 9294,
      "recursion": 9295,
      "eloquence": 9296,
      "Michel": 9297,
      "straightforward": 9298,
      "Marguer": 9299,
      "Oliver": 9300,
      "elephants": 9301,
      "manipulate": 9302,
      "enlighten": 9303,
      "loyalty": 9304,
      "authentication": 9305,
      "advertising": 9306,
      "diagonal": 9307,
      "curl_easy": 9308,
      "café": 9309,
      "currency": 9310,
      "Brazil": 9311,
      "Follow": 9312,
      "limerick": 9313,
      "Marguerite": 9314,
      "!\")": 9315,
      "6x": 9316,
      "Air": 9317,
      "GCD": 9318,
      "Hub": 9319,
      "Kent": 9320,
      "Kaku": 9321,
      "Land": 9322,
      "Mile": 9323,
      "Spl": 9324,
      "_and": 9325,
      "_from": 9326,
      "daring": 9327,
      "fict": 9328,
      "gif": 9329,
      "omp": 9330,
      "oque": 9331,
      "patch": 9332,
      "}),": 9333,
      "insect": 9334,
      "anch": 9335,
      "reput": 9336,
      "toms": 9337,
      "isingly": 9338,
      "ico": 9339,
      "beam": 9340,
      "ategor": 9341,
      "0000": 9342,
      "keeper": 9343,
      "shares": 9344,
      "indom": 9345,
      "feast": 9346,
      "fection": 9347,
      "emiss": 9348,
      "grades": 9349,
      "notify": 9350,
      "formations": 9351,
      "uding": 9352,
      "foster": 9353,
      "producer": 9354,
      "calming": 9355,
      "anged": 9356,
      "owns": 9357,
      "afford": 9358,
      "INCRE": 9359,
      "somewhat": 9360,
      "standards": 9361,
      "flair": 9362,
      "colon": 9363,
      "list_": 9364,
      "glad": 9365,
      "operate": 9366,
      "planned": 9367,
      "80s": 9368,
      "Within": 9369,
      "tempest": 9370,
      "dijkstra": 9371,
      "attent": 9372,
      "chatter": 9373,
      "courts": 9374,
[...]
